function [Y,Xf,Af] = myNeuralNetworkFunction(X,Xi,~)
%MYNEURALNETWORKFUNCTION neural network simulation function.
%
% Generated by Neural Network Toolbox function genFunction, 06-Oct-2018 15:07:55.
%
% [Y,Xf,Af] = myNeuralNetworkFunction(X,Xi,~) takes these arguments:
%
%   X = 1xTS cell, 1 inputs over TS timesteps
%   Each X{1,ts} = 1xQ matrix, input #1 at timestep ts.
%
%   Xi = 1x24 cell 1, initial 24 input delay states.
%   Each Xi{1,ts} = 1xQ matrix, initial states for input #1.
%
%   Ai = 2x0 cell 2, initial 24 layer delay states.
%   Each Ai{1,ts} = 48xQ matrix, initial states for layer #1.
%   Each Ai{2,ts} = 1xQ matrix, initial states for layer #2.
%
% and returns:
%   Y = 1xTS cell of 1 outputs over TS timesteps.
%   Each Y{1,ts} = 1xQ matrix, output #1 at timestep ts.
%
%   Xf = 1x24 cell 1, final 24 input delay states.
%   Each Xf{1,ts} = 1xQ matrix, final states for input #1.
%
%   Af = 2x0 cell 2, final 0 layer delay states.
%   Each Af{1ts} = 48xQ matrix, final states for layer #1.
%   Each Af{2ts} = 1xQ matrix, final states for layer #2.
%
% where Q is number of samples (or series) and TS is the number of timesteps.

%#ok<*RPMT0>

% ===== NEURAL NETWORK CONSTANTS =====

% Input 1
x1_step1.xoffset = -11.03;
x1_step1.gain = 0.0418585182084554;
x1_step1.ymin = -1;

% Layer 1
b1 = [-2.5958235923520072141;1.4885223426087603737;0.82810302157091553177;2.5853205934551901635;-1.4515651440608718925;-2.3787173400426171455;2.451772737988976214;-1.5597489664425301381;-1.1716313090158434473;1.7022772257029588072;0.11048857399603657925;-0.55395350258542463973;-0.43294158928472292747;-0.55854038294608099324;0.11404860903672534023;-1.3990407023243631723;-0.67022703254173954246;-0.22796039647129429095;0.15670024724484474254;-0.51548937891586810167;0.54736932021051110109;-0.24315182298410789596;-0.22222175649567324496;-0.041589832786059252601;0.28605129525722483574;-0.24389304276261017379;-0.10870218818201216049;0.18418948952949004694;-0.41794154833811697491;0.33533758299595595176;1.3291754602326901757;-0.707826517230640051;-0.030796463156164251285;0.86058241065622009813;-0.29613267745189930658;-1.0947726724904527362;1.0951606075260724715;1.5252129496084292359;-0.4067141772051034998;-0.80968458405193399763;-1.8993743494495924917;1.3584793814690687697;1.9387723811518957628;-1.7820359523982671757;-1.3355122651363009467;-0.54989324532429573189;0.95035798551833927661;-2.1730868541067631661];
IW1_1 = [-0.30910028643808445947 0.23039462175962316381 0.37504197461209709541 0.44936464139141807372 0.020783191227409531648 0.0034551695105899879468 -0.31149740093987554612 -0.14350736774084135727 -0.57409093661578014522 0.43345696614606293862 -0.052392374336194237616 -0.064962943864701472307 0.081095011568963676352 0.22386349074426220573 -0.13644166489971940037 -0.61369835254283933157 0.26136913228981095703 0.43398393959258069197 0.51308606412640944683 0.90294741252708565771 0.14253669584462430597 0.29256175487799407353 0.12382312016600136029 0.46430304562787150235;0.011529566202869394667 -0.52841489338754399352 -0.0013489228505532482871 0.16901157114191778241 -0.78330455603863924363 -0.43471532037409332805 0.43810885116277131779 -0.17562837627325283973 -0.10210276216948621641 -0.26901848083014834323 -0.1993180321370718322 -0.19216773284753096984 -0.36604048321811832878 0.21559398063459406236 -0.06444170921422755216 0.52496405155920289332 0.038231693618345934105 -0.018591292332001581322 -0.063041510799100017315 0.16862699976901643351 0.52685859710654137089 0.7223773327216995721 0.22838745706987828576 -1.1510038681293517371;-0.85466632978901191375 -0.46640233288723703664 -0.019455146564868470993 0.49519992699968384819 0.90463778199227551369 1.1266243576734220611 0.55986960600796098486 -0.083270078229556662719 -0.00081326341025082099501 0.2921040504750026523 0.26936848629465609539 0.022173231227181150471 -0.5657366311852228824 0.036979842958647791973 0.24000356961327648508 -0.19506737120816275421 0.1635867596615366848 0.59645738414001792105 -0.39462014052194238634 0.10229552156041568645 -0.61431005436999863711 0.24035047849791205121 -0.21228801016538245694 0.31427121305269384299;-0.93945743640663070817 -0.80769896662309759172 0.036254009286362208486 0.021537476165133330464 -0.33249178092238657056 0.11259878546855392467 0.14969451681218748362 0.057008520652512620353 -0.44625665907849582092 -0.25803768506576979513 -0.034984395691383493587 -0.26304796300429406086 -0.82191344460408555239 0.16004451903032287929 -0.5246257163859062711 0.19048394352554745557 -0.16674965190856816388 -0.10448891621552798548 -0.28482507481116137171 -0.24605533728921491488 -0.34776464966644760057 -0.25710135188189081612 -0.18034387974508875319 -0.29305372481545305385;0.71453831836549519529 0.093866172904159425605 1.1460305165180189046 0.54744829697460095641 0.96776520193798754033 0.042228380923626664123 -0.41286947326971246142 -0.60108560724207282799 -0.01263761998739872279 -0.18718796253079883485 -0.81059977427940743677 -0.67117386128081868435 -0.45304547013690543711 -0.39083640876100605999 -0.34001582070725616669 0.1774605783468354292 0.12526712688668267814 -0.4741379264577285646 -0.51099632470464173561 -0.52026997643060091114 -0.36756895221085905678 -0.8712744235660030423 0.18040261840158400286 1.3823500882851353921;-0.037340700531057070821 0.17606704531119718449 0.58720397555387626731 0.44072912937137487255 0.34121184758646561086 -0.17078258822128472572 0.96573274648880835791 0.047252893871751071309 0.26765288481221838346 -0.12806851049570247558 0.046104986599350430976 0.66271333374305418928 -0.0046048942604613035678 -0.17759767346577695624 -0.26897269694039865895 -0.16347951507409247407 0.34282608568054906417 0.43822939352370438026 -0.41278044080493581092 -0.51124262517150698137 0.18342242804049646576 -0.3997289154896884189 0.91481633418946783909 0.83337452423459668083;-1.3236721246299210097 -0.67036201077309132135 -0.4925668818122965753 0.046248414227889209083 0.026755929053932175909 0.31989842235909682344 -0.10612744650827191095 0.081310887381561100518 -0.22744365924118278843 0.11026662250812810373 0.36214341532463040219 -0.57954691105327560408 -0.75055320516765777761 -0.040487824211661513352 -0.3643723734082986998 0.18345286501933077972 -0.15264962989639829782 -0.16055962810712212652 -0.4656178499630183043 -0.27108730508298523043 -0.29324677895676298789 -0.55069061814464814741 0.011376731983828075601 -0.45036129370314409437;0.62423870311525320176 0.40581728969771541093 -0.31260814572195544381 -0.43229904813654723705 -1.0275384720885156753 -0.96749876553030311754 -1.2156577328778843672 -0.98135586993499623887 -0.66791227261134900051 -0.44866428489397941481 0.47218921730891233457 0.049223242592467596201 0.30457688557152823305 0.63931552859066720362 0.3997891178257945155 0.28574716827036161781 0.6208841635389461544 0.60970801660590268067 0.31620509154381437611 -0.14189462512535697125 0.47129101694010727686 0.3757547028292570479 0.11569405219968173504 0.87916549483789963038;0.62264360418242636896 0.64984736514216479009 -0.25511701185662388758 -0.28752698376452212603 0.5890782174854012343 -0.80849392308646494953 0.17126000909279340267 0.24915880213461918946 -0.59142879835419348566 -0.23499222762786214913 0.1547783334134913702 -0.074372219321199486974 0.071429310322696573654 0.32417815597598786947 -0.017330485948913669503 0.24477960090758565936 -0.47807175060180551185 -0.022616816034746453634 -0.11615389968005096488 0.28909687280035800683 0.35459016864691828008 0.030771736082045704486 -0.29737780974745142704 -0.18133141747010511624;0.26605877961455004499 0.56562180687449303829 0.18621694338394295665 0.27474177486899736822 0.69282067378744416342 -0.082138941617542274298 0.61042389360437732115 0.068274275383838456399 -0.0097039192387435024845 0.037213818114368787948 0.11528797238565507977 -0.10108770940473602029 0.17916979552580394874 0.18609196874719047266 1.0614472732368662733 0.92150696682021204786 0.18892823090759128246 -0.25915985207123654055 -0.27976647745418398161 0.052862130273708438088 -0.49360737596819298512 -0.081832708710614418535 0.43576262041798591307 -0.49016456162583599276;-1.6101109417479069208 -0.49972025681882631387 0.45914833865801812918 -0.42017672565743929836 0.49808366095692313547 0.62299811963206941368 0.71270478421843219685 -0.41155783678504609391 -0.50282264889336403257 0.39517776075482569098 -0.42599787447962178533 -0.23701690388273177756 -0.71724067089212850679 0.085070982493952548853 0.069940476620042268951 -0.20871899288704692799 0.0058443164131294217389 0.89810618443128920063 0.5451777685894820813 0.0030324437209385485606 0.43037059533712596071 -0.13415364324402834217 0.39368660526468163274 -0.10763162035802679994;1.7119954206607024272 0.22884759787137523568 -0.28156707933882296757 -1.2238234759962298703 -0.28440855402359760395 -0.65940698055500401864 -0.43157328731032118529 0.6695710752364552043 -0.044294148976628824887 -0.33392336536280570192 -0.46557643892241162842 -0.94964142527904704671 0.079792391111081384381 0.18061251794403912485 0.13770071486662577298 0.67591066562204427104 0.27915454909126169447 0.10057593196450195783 0.25764872440807840004 0.59593229487341692341 -0.3586097726730030355 -0.60181064295238095863 -0.94761858768808027165 0.72977440859850095656;-0.46767040564075440523 0.025580308921624005797 0.42113149688649831326 -0.01906209335515107739 -0.10776852405923122158 -0.086472395286054271057 0.36851202144378492065 0.029698579290356935667 0.2651345432310472372 0.72130050380188337478 0.088503144878076187019 0.23190438616184769205 0.32493872210960855762 0.088377653720129845105 0.2268929000960746567 0.33527577731555174845 0.38793170616249528226 -0.23791248216425836537 0.10029952628476804244 -0.33995874983707569106 -0.16436859833282077559 -0.62024920149503837141 -0.89491319802085556034 -0.46674926157015506067;1.0307572030680196562 0.49874145770959577018 -0.29844234024196747423 -0.054935072260478945427 -0.5273287961443262617 -0.59487502638641154284 -0.59015762417749040303 0.41307484354822665562 0.00660023974154016254 0.52121385412470611076 0.37608903654018133178 0.38720496468281900837 0.33529068357051483584 -0.09886015569220846233 0.60419849474778097864 -0.11305020203317209249 0.061202368922476581281 -0.60208857356300926611 -0.66539986100178039052 -0.38226484488041556631 -0.38039413458564869108 -0.0052776718189385639357 0.31687160013704845918 -0.56048251231052859112;-0.47862924055935646139 -0.23628929743662513419 -0.053803414228917663398 -0.27939482296079642953 -0.346865361149927387 0.15100711682357453869 0.091961797126986280504 -0.28863882487789471742 0.35282326962563270722 0.60689219356229651137 0.32437683375673848074 0.44336018442121621908 0.19454954442888564015 0.36577301466786416029 0.46665660987178375629 0.030899433780381110881 0.028080017886083441514 0.66004177794172380622 0.34392395501396555435 -0.73684831312101495282 -0.77495857374263898976 -0.49474707495063796614 -0.68203965977494718231 -0.25628809524459283953;0.51053403417258957919 -1.0821360789952154668 -0.24993630872469124737 -0.85072153731803801247 -1.3920587056908040324 -1.3509419512892475446 -0.6447739800061841331 0.25098441089899786727 0.17850211970528623295 0.37770789048483888184 0.67590649063469965263 0.32256956959161553478 0.9750982049606469193 -0.2039107810772913254 0.63543121541316838208 0.26974095017893739978 0.71280071515253340397 0.79746838580257928264 0.12004492834614396979 0.081113405393342191685 -0.49836644379499650537 -0.18131125040181667041 -0.30495603297397805287 -0.11355107157205951429;1.9212758676667178737 0.056055371038197701616 0.22757459215062200708 -0.39513294062606207913 -0.051686021639268095451 -0.04759505425706569981 0.097604286661120143176 -0.06848612667980526203 0.53250774686391866286 0.94639261288956644247 0.40050438178820130242 0.56554113728322175092 -0.3045653523317194411 0.064410841494356135817 -0.31313449188467507023 -0.39226434422548844827 -0.30707936624288517669 -0.50242627446109910938 -0.72527757348720933717 -0.44729142074294997444 -0.11145910847438690594 0.55123613376000668573 0.41645903664670808064 0.69437059955130964184;-1.4847721503696986733 -0.29915819332302562295 -0.33368925636303453652 -0.022194806358147085856 0.54906585211907710242 0.096676641306876365256 -0.33768106661990177075 -0.25253138180466516705 0.13583650100795044424 -0.31753029444842367779 0.23023546668393254921 -0.19693160342043419808 -0.41143718735627526906 -0.71976717979207349707 -0.5883597384992217405 -0.36694787657091210153 0.023713358686173191536 -0.25721914948907587117 -0.71388876323498962062 0.81707628528114928379 0.4233983098956115021 0.25246722395735937683 0.31207946661488117357 -0.33558316586618797128;1.5360719201166919134 0.46332366144882297654 -0.79021159346457403583 -0.66099396405297417001 -0.45662969147505244605 -0.86442596246557334982 0.36734288894644823165 0.080147194486930292689 -0.51976356319550198748 0.60441233563974150478 0.047105831083172157447 0.49446591830074909657 0.6684304266129180716 -0.25740860364622142331 -0.56969121289545165965 -0.91787000895855808125 0.40168678005606150982 0.13070139564828753276 0.42117627489581482836 0.7449182853304269214 -0.023802771201664733869 0.46130483754438889044 -0.12943319868240002468 -0.3086076821722135155;-0.04971326166144381109 0.82989220521382700557 -0.28006798252004799776 0.78379745976335024604 -0.2763872497573687248 0.46222028130259712464 -0.11750508004289504649 -0.066307817467846918991 0.65634122205114708848 0.3636024846938343269 0.85597219990689388247 -0.043556023907899039938 -0.48501479269670921823 0.17620235449115878579 -0.088438488629057385171 0.032954554103145537736 -0.094187014667100152354 -0.10832628692456659769 -0.053484723169459270908 -0.324686347900636052 -0.022694195976634710943 0.06643430884558981786 -0.18417301598465440904 -0.025667708694392513125;-0.23473396712735533631 -0.17989579782172177014 0.25825734070748523896 0.010852073037578895132 -0.068474973263428634551 -0.23214928508261195583 -0.10891580645272619376 -0.63423388673569358609 -0.73174366221484454798 -0.14019343454007648919 -0.081318825509161113407 0.0770679037278518414 0.27600803748755486922 0.065570897796382268674 -0.40101462979141611065 -0.20487252124336982617 -0.42626380635221006177 -0.23514072257930646037 -0.20117012546601514833 -0.3735364035128876381 -0.23367888469403452767 -0.094093611755882544667 -0.63860767189820355494 0.93417427539785757862;-0.018700549638161464983 0.63834018014171955979 0.15795355612007641599 0.62980776965827633962 -0.076671538512614031968 -0.24772593733430481322 0.14816927933343196355 0.0017853521574601217969 0.26650580262302492329 0.07791493414595443423 0.19477579505546216421 0.14590931014227134788 0.38759236627349974436 0.60978546027611801872 0.54839707910149959602 0.46977614291025449056 0.12173463078243938751 -0.3422413375105037292 0.2683494923655063702 -0.32815565625401527106 -0.24243345014160866402 -0.014532144295502976566 -0.26191013931999612696 0.26197955357753166528;0.48471432021835003656 0.34594786903264723721 -0.34370237609118103883 -0.55935191384021298866 -0.48854081538707971877 -1.0180330682407590093 -0.25928089444565777244 0.058285461020205694971 0.3589143799424449055 0.58670866069346538918 -0.085348166395323915578 0.074809988522759843232 0.34628246188124339744 0.41133051919188395873 -0.035038270590067262245 -0.046319781700382971212 -0.22286288570445655921 -0.17953727381399745 -0.2913478831670188729 0.28711332907155601157 -0.15138667183206089284 0.92345977504287801718 0.46485560674768100498 1.1465073620650971797;-0.95864497908893886446 -0.061455906906879353979 1.457483140799449961 0.70329182813412915998 0.17695596183305492555 -1.1469017334249735907 -0.73816104117694147924 -0.046145125864511582492 0.46733550337446788658 0.18651567272667748942 0.53888009743805920237 -0.21943651460972810052 -0.55213554893683014502 -0.032371011975796191995 0.95187790652750092768 0.32403315164918328195 -0.22306401324495936378 -0.82058481906536540063 -0.50438465629004891611 0.2660118257412217857 1.0857795828459948506 0.41865751716453031284 0.94950939702290992894 -1.1642268222381424447;0.62538786490897335657 0.58114506256536380135 -0.36925796240917574398 0.22367194991845670837 -0.27744227168532348271 -1.1185049355668192916 -0.59851650735460504293 0.7786315219264857701 1.1572655479113211907 0.28571379355255865917 0.13219193781913429753 -0.25227348024200502152 0.18861503063204348996 -0.4310245668603782665 -0.79877639181081283581 -0.5191859105559690768 -0.27422096516617661122 -0.36494587454278859529 0.7780718587263611985 1.3807723106587157513 0.41551802493242029346 -0.61082860363888491495 -0.89046661435103058313 -0.19808442560993563819;0.37741930318839322922 0.099965488160421153707 0.0071395041177056278725 -0.33639855487712982951 -0.72572330347843927445 0.28133408825745326309 0.42245817171080413122 0.50719564576742681705 0.037747714528436879244 -0.3714102981896983402 -0.43347850495829470807 -0.12852085078098868243 0.2822060602232301374 0.57299236870320902071 -0.46996866553330784999 -0.46046860853936782965 0.35274072877112638835 -0.25279653445541266921 0.58589312208830002238 -0.57827358580809684607 0.079920222262526305346 -0.20657316275696208097 0.37717225720734548489 0.53354678382449893803;-1.0880526233267413527 0.12392265438159306978 0.74299419772969699238 0.56776577393335037058 0.30349390331892167616 -0.58160283390649880619 -0.54157343210675301659 -0.42332304628230765786 -0.6848020073763954052 -0.70798956449101291266 -0.086923144708552474436 -0.34532298667692751248 -0.53788070409697341656 0.11848180477315407855 1.3817457770811665263 1.3644114179402375697 0.56806241609664920311 -0.15855022739976004642 0.7229964880084441825 -0.59727779838678818347 -0.41671166897044492616 -0.28219995612045306599 -0.47223568315077124602 0.61286908721774147057;0.32456244326409017242 -0.016983989978120003078 -0.28897463519320076841 -0.23876625494278225226 0.32278434661384747262 -0.54344117571064931571 0.027882471195522191137 0.61623440000159024343 0.29836274429404535669 0.56313998844925772236 0.22207596347970881556 0.56129404666898685683 0.49180555439120282601 0.53073080590006016521 0.14121078553428570435 0.33661765424234751931 -0.17678556466232830946 0.21864086137352117811 0.19703922596670006562 -0.28226285790169225454 -0.07911445787152741882 0.5698143721520936289 0.63559713623394209492 -0.34573974535517465467;0.36813928239482690552 0.0023836619982693322412 0.094082746271008460548 -0.21975190668570190877 -0.61423246503658690543 -0.70828991395234230932 0.049304695524434623277 0.26651339674907170707 0.17861618518996791316 0.45523951277299573581 -0.27273912466734695492 0.40989597875841632391 0.4142482336429067491 0.36682788195889809435 0.23719503399874203309 -0.094742402219100435579 0.48467205032692389777 0.14231949056717085877 -0.073610139953545650204 -0.6056926274481313488 -0.42351961265444398874 -0.18837752877848518152 -0.041591003595460702968 0.38508446684377894975;-0.32751640748914051526 0.2929255101457778343 0.72456787501461350498 -0.42556879087506205295 -0.26957561183853301356 -0.049314815922577664997 0.20151813284162503614 0.23704259924024351225 0.026891724018338711288 -0.066906269411236923839 0.73907916026564335343 0.35574893468512047701 0.26446396885377310149 0.36878099426075294787 -0.15551935444329406666 -0.02881725918984982121 -0.53307260867600847476 -0.085416631096578404803 -0.51525979899023177655 -0.33959688795180253962 0.58599294774459942392 -0.39294088135699506426 -0.66435926425668578865 -1.1873102957276155944;-0.11613713251358151468 0.24263841988656026372 0.13616082756814609778 -0.26950846192696842341 0.71056873593929115174 0.30253254096848264387 0.76312398201992370783 0.53836677399220556062 0.30089787571591647408 0.40748313433524580018 0.24580282515066803617 -0.087982465248509666988 -0.10634749679503124886 -0.51345229669939396189 -0.83508680915539879042 -0.44030245219175989657 -0.54478296528848957347 -0.27858192854869107125 -0.385431852632006966 0.29210841914414831244 0.54510415410380019807 -0.38026249796976879791 -0.468123689205089899 -0.81739519928529591475;0.75932946881860086119 -1.0249394287598008191 -0.42052633726901894606 -0.5944014301542104306 -0.58777184911743207696 -0.22034409865333082212 0.21143181708194241919 0.20609824397412196406 0.17509905852207002797 0.60544069290222701785 -0.18134883700769038883 0.048592054905914443264 -0.1954400633862427572 -0.43085925524282114862 -0.72186212954498651939 -0.28116323416211275177 0.29169637869740244751 -0.20245779445732731139 0.23527786040183673588 -0.25201454013228014039 0.60556354060848371912 0.38821826378866852725 0.41168259642286963995 -0.69291163462867622069;2.4762480772032300358 2.2528032515214344578 0.77623013763762283013 0.20437281130969836562 -0.40612082891655443273 -0.79991056649476288687 -1.6201011877438276088 -0.91523910400347430194 -0.42469117040014564557 -0.20720317088570749942 -0.7996546532526750406 -0.4806850986070554943 -0.52600642585825241326 -0.19659162891542111828 -0.27829763701139687004 -0.44297587482559508398 -0.14874262325848650046 -0.43876519041619982398 -0.43690193762968382307 -0.15332626306253413495 0.36073797041668570484 0.47817986700940912081 0.96796923154808289791 1.5325218581631563364;0.25647883635712176442 -0.29244299313606764157 0.012068343895320875203 0.10626858576045086768 0.071408250458795008431 -0.072961653120655459159 -0.23595848602807589778 0.048004486409500939093 -0.1787509900442432742 -0.15837735272508302042 0.40397030283336970991 -0.39944700677077693562 0.46200710067791700419 0.16459526518791622873 0.43616823004106491934 -0.5685132190976939226 0.1050141735858734493 0.79804462002950593558 0.067011013152808676652 0.69256463656537570195 -0.16640313121775490712 -0.075008282506817680613 -0.20490729612701108486 0.37704531518994044426;0.015438129004692921487 0.21727774771471736193 0.3710429859852328871 -0.025440131601852496168 -0.30700707401381183148 0.28078280612325456911 -0.51405752629985623781 -0.57231276279923093409 -0.7544305349303558339 0.13310721544500672686 -0.00039768345922205645265 1.0921625390500773189 0.226089264157640496 0.45611984840675390274 -0.31350381718749842364 -0.63995866180700644588 -0.082767849328728826386 -0.8722005782291021303 -0.73522451307686575994 -0.94274197513886137667 -0.30510064788819829529 0.79460000115105033913 0.87350435137369031313 0.46773353475893003628;-0.25951762981252929352 0.18349173711513630525 0.27761867769364900749 0.55001850861854595376 -0.33123558922227458456 0.16150308440499885898 -0.10557315014698388789 -0.034427580897831384921 0.096154638542706588611 0.94118264686601005309 1.114477255921505483 0.084632325158066984416 0.12132929140778811461 0.37389037593274421223 -0.62950908391077642356 0.035910049725206179272 0.33708546364482783186 -0.50645999920750928158 -0.11561339250135108103 -0.34186845282835404136 0.25057727434627824481 0.1187907196963295664 0.015256827360715617681 -0.47600307247494211271;0.41706961380987933596 -0.30813293936048691268 0.35566617300211145203 -0.11979259012238946402 -0.12038215494215476209 -0.38252150998025979955 -0.11289717931042249355 -0.85634379592476550513 -0.61353969647585426817 -0.031939767668630839048 0.075483158705858824367 -0.59583039078178090531 -0.063658413581587136587 -0.82387378331583460689 -0.4262941893207257138 -0.94560362336807513017 0.11944531557584525672 -0.20110834092202917178 -0.35912907916184005908 -0.29946350513945441119 0.26944961558247731981 -0.10582282055522017339 0.020650255788127271084 -0.015523367695976734298;1.428717316724798625 0.73260861928393350428 0.84297321356668741821 0.86992382307439064526 -0.0025117755446171646794 0.15847555591482609394 -0.15219377882838877603 0.92903852496926053739 -0.06605281293775384921 0.19585156592216126925 0.170529384577331522 0.30424457087893697071 0.74719502454793873536 0.62605933683712544635 0.90502193283907261812 0.65043931485650252622 0.062303350816246189092 0.6048891438682220123 -0.070974602798627828282 -0.47377677978294974181 0.19383066604746390649 0.16304709619510968088 0.070349805943829668564 -0.90404713130169012114;-0.3344413679465074174 -0.75835243504643345958 -0.37032299748413088913 0.037454907576428962679 -0.010660588714109041353 0.28525318132037091878 -0.3130674776719755692 0.47345399099829460487 -0.76724480108515202836 -0.46708362369894756982 -0.34164039685601088614 0.12651219585944317725 1.0922893656563905651 0.043056727148474208122 0.40153790494434449254 0.2283768968149329226 -0.60186134993908424473 -1.1121313217587913691 -0.18913241451504816948 0.79333537931338649063 0.19498605250422593183 0.88666564802917124943 -0.052633408567030082192 0.52817410282218824058;-0.94046623275981366952 0.21795855434579664012 0.25589696034123943225 0.28509445186419746232 0.24541059791078032037 0.76007263249847445419 0.030302603805932679104 0.071351380310489903591 0.38587229391103350373 0.56273037178349283316 0.54805428120224453092 0.04631383093322985478 -0.0088597891598292677351 0.10848456637665197799 0.26321959022811158846 0.4960989242542758193 0.089469970300466813984 0.010392469825482059109 -0.69754847315176449207 -0.97587395570028567793 -1.0431654306780180352 -0.73281686088513176003 -0.38975116810322391059 0.24268418538389230354;0.69691641566554962672 0.81763168044338663254 0.17244948066226375993 0.55339071805662032322 -0.21023091736725060819 -0.40734345509171882016 0.23023946806325806813 0.28846815440606976555 0.22148765063024275501 0.37525434328443457721 0.64659434302065554867 -0.38018876681459018441 0.124628676396017532 -0.20699776441728845455 -0.12800763776258847204 0.49802592732572881218 0.30535446143026789834 -0.22424519545645218987 -0.092898400349524484776 -0.51304137232556712434 0.44815026819712105999 0.14866489227107304583 0.47400582663252610605 0.45676195798011326454;-0.99671758895450812687 -0.97371846478104140399 0.33443749076454520885 1.2989144379487602698 1.2737443196394861999 0.70993571979976943798 0.50964198686248562975 0.50755078632631434044 0.14785406885763319185 -0.21820190013443641064 0.10071648437756701433 0.45871289586663654969 0.36599256764010817955 0.44989347257272915837 0.17261038365463707289 -0.36017014188419288478 -0.69216140398899139718 -1.0629493572459058903 -0.74550017650508570988 -0.1544728030348244685 -0.47611363615457330534 -0.32793594108038803814 -0.17651905714498500322 0.0074962161701807583647;-0.42716706376578267301 -0.23597493247261819294 0.4608064040832710595 0.14738427848488347416 0.056000067074843368209 0.26086494055754338994 -0.22725399054798076093 0.56377642440230857357 -0.33806687618946035245 0.36966113126617217155 0.29903414724014315551 0.28620645770318808854 0.59478638112271409177 -0.53840858257317536495 0.64693266577501906678 0.86688470110137061386 0.41717594325387796772 -0.86894854143662092483 0.2344657022367950816 0.29297486195923039265 -0.79322564257495076223 -0.17269445276201433881 0.054839156706070618652 0.24152514735122623812;-1.6600196255453003591 0.72124825206335629879 0.49458378418115944708 -0.011930151257590310143 -0.39588957271185404307 0.075644951919324243672 -0.42877748486672656592 -0.50203922653479360338 -0.46582294823132397443 -0.66989964135417046087 0.26226341022477023257 -0.17305380236978490371 0.26310336418223884136 1.030111133115165778 0.29367164058591005427 0.11212974159127217511 0.40760958181244805187 0.21298389819869778528 -0.21331005754366610949 0.35060570601521084955 -0.33350861222498789926 -0.16708282771426080648 0.1081053067931308509 0.51497932585933392513;-0.0043959209521358556111 -0.70347962050225698594 0.61572274874540189327 -0.022844868890264144468 0.42377341144059393896 0.56158748237938582726 -0.61700584073713971023 -0.51962497411209684905 -0.54458265499166902401 0.53765003583182957581 0.11638471588894329367 0.13137804086398433001 -0.66054905826675114344 -0.98520432329643525815 -0.21836248675443203915 0.38988563108343604613 0.12484226328132386197 0.48018357783935977645 0.32543904969368508961 -0.11843190194720720765 0.077406070185553080276 -0.10083389934584406633 0.58278558657568313439 -0.90944569583980860994;-1.585366781992513685 -1.5337944347685614765 -0.0053036986554288387263 0.58696672508076186414 0.51009764015961456263 0.51750056532456822911 0.59283266659535327481 -0.087477228217854308134 -0.027729775506584598832 0.68652080675410975807 0.20769635282359830142 0.59549237876537342018 0.25008698472890500408 0.41387310890624295912 0.29029309349131243723 0.032477400874702244682 -0.87230032486331787744 -0.69989299936013149583 0.3284711151194583123 0.031526919866897124001 0.63104056451428613972 -0.60206305865669784705 0.16081089240923945871 -0.70682786778901962599;0.29454478147000501265 -0.35823450252315369724 0.85486535944648534002 0.23827573490908118825 -0.34398467115725200882 0.094394823819911252705 -0.2638902413219397225 0.31980808547293926303 -0.4858940822984859631 -0.73614774877177202583 0.48627852322071590807 0.26394869943210558239 0.46590809821303480476 0.17851768461508213393 0.38955946463514773415 -0.97949841722878361328 -0.67475276439657416727 -0.76160049562941178891 -0.20419100397839090588 -0.030733815279384808089 -0.20775112836354198143 0.23046565942253322001 -0.28992071760152371418 0.040393212286531671174;0.02674630549854825623 0.47669475147600071097 0.67726931681225788218 -0.15573373864205750094 -0.15216919933747180549 0.50632990235661379241 -0.054494827924893254889 -0.64680521201120888541 0.049562756673383584483 0.013877566643559643977 -0.64863478409498898092 -0.22415455685075280634 0.37040866403452865629 0.081591852953120297398 -0.063817139784883167297 0.14584747441110565425 0.47502451481775737063 0.46825300515129641976 0.0067935738608818699302 0.67168609989502470192 0.72154902719877866968 0.50575937776255197598 0.89455097073321865331 1.1930429923795040636];

% Layer 2
b2 = 0.62637150080859371748;
LW2_1 = [1.175313542609731865 -1.1927152537818248579 0.37999248789917822178 1.1792989005148308834 -0.23738047862240796437 -0.40673286636720995535 -0.77360553782246577192 0.64223159040279431675 -0.70044614196385501792 -0.56805420648925208926 -0.89282609382205069259 0.731215845154757349 -0.37815000749889127185 -0.98040596160474713372 0.4217275836847808046 0.25765355449041998925 -0.32342186903831871003 -0.43474511535339360746 1.0375448495636383495 0.71526218230504812201 0.62747791883074544028 -1.1540492416370264905 -0.48294562392206985546 1.1476572424179305454 -0.83993066240317892923 0.62696094002402469325 -0.40090635189809314953 0.22487037890062711032 0.42360604183929795319 -0.47972025371353849144 0.76733099503756951876 -1.0110309830023929134 0.22102834548278996185 -0.87665153136015616653 -0.47002844904886553756 -0.35918053605201427647 -0.30252008800174712277 -0.21902150481802143411 0.095441678651161043767 0.23033015217950131293 0.22803857668490634669 0.60373417990535160893 -0.3515045078225512154 -1.4970104021364583069 0.81980411020342591755 0.41178459383865162469 -0.40591655362576550825 -0.1244711579891082387];

% Output 1
y1_step1.ymin = -1;
y1_step1.gain = 0.0418585182084554;
y1_step1.xoffset = -11.03;

% ===== SIMULATION ========

% Format Input Arguments
isCellX = iscell(X);
if ~isCellX
    X = {X};
end
if (nargin < 2), error('Initial input states Xi argument needed.'); end

% Dimensions
TS = size(X,2); % timesteps
if ~isempty(X)
    Q = size(X{1},2); % samples/series
elseif ~isempty(Xi)
    Q = size(Xi{1},2);
else
    Q = 0;
end

% Input 1 Delay States
Xd1 = cell(1,25);
for ts=1:24
    Xd1{ts} = mapminmax_apply(Xi{1,ts},x1_step1);
end

% Allocate Outputs
Y = cell(1,TS);

% Time loop
for ts=1:TS
    
    % Rotating delay state position
    xdts = mod(ts+23,25)+1;
    
    % Input 1
    Xd1{xdts} = mapminmax_apply(X{1,ts},x1_step1);
    
    % Layer 1
    tapdelay1 = cat(1,Xd1{mod(xdts-[1 2 3 4 5 6 7 8 9 10 11 12 13 14 15 16 17 18 19 20 21 22 23 24]-1,25)+1});
    a1 = tansig_apply(repmat(b1,1,Q) + IW1_1*tapdelay1);
    
    % Layer 2
    a2 = repmat(b2,1,Q) + LW2_1*a1;
    
    % Output 1
    Y{1,ts} = mapminmax_reverse(a2,y1_step1);
end

% Final Delay States
finalxts = TS+(1: 24);
xits = finalxts(finalxts<=24);
xts = finalxts(finalxts>24)-24;
Xf = [Xi(:,xits) X(:,xts)];
Af = cell(2,0);

% Format Output Arguments
if ~isCellX
    Y = cell2mat(Y);
end
end

% ===== MODULE FUNCTIONS ========

% Map Minimum and Maximum Input Processing Function
function y = mapminmax_apply(x,settings)
y = bsxfun(@minus,x,settings.xoffset);
y = bsxfun(@times,y,settings.gain);
y = bsxfun(@plus,y,settings.ymin);
end

% Sigmoid Symmetric Transfer Function
function a = tansig_apply(n,~)
a = 2 ./ (1 + exp(-2*n)) - 1;
end

% Map Minimum and Maximum Output Reverse-Processing Function
function x = mapminmax_reverse(y,settings)
x = bsxfun(@minus,y,settings.ymin);
x = bsxfun(@rdivide,x,settings.gain);
x = bsxfun(@plus,x,settings.xoffset);
end
