function [Y,Xf,Af] = TempFunction(X,~,~)
%MYNEURALNETWORKFUNCTION neural network simulation function.
%
% Generated by Neural Network Toolbox function genFunction, 05-Oct-2018 13:39:22.
%
% [Y] = myNeuralNetworkFunction(X,~,~) takes these arguments:
%
%   X = 1xTS cell, 1 inputs over TS timesteps
%   Each X{1,ts} = Qx24 matrix, input #1 at timestep ts.
%
% and returns:
%   Y = 1xTS cell of 1 outputs over TS timesteps.
%   Each Y{1,ts} = Qx1 matrix, output #1 at timestep ts.
%
% where Q is number of samples (or series) and TS is the number of timesteps.

%#ok<*RPMT0>

% ===== NEURAL NETWORK CONSTANTS =====

% Input 1
x1_step1.xoffset = [-11.03;-11.03;-11.03;-11.03;-11.03;-11.03;-11.03;-11.03;-11.03;-11.03;-11.03;-11.03;-11.03;-11.03;-11.03;-11.03;-11.03;-11.03;-11.03;-11.03;-11.03;-11.03;-11.03;-11.03];
x1_step1.gain = [0.0418585182084554;0.0418585182084554;0.0418585182084554;0.0418585182084554;0.0418585182084554;0.0418585182084554;0.0418585182084554;0.0418585182084554;0.0418585182084554;0.0418585182084554;0.0418585182084554;0.0418585182084554;0.0418585182084554;0.0418585182084554;0.0418585182084554;0.0418585182084554;0.0418585182084554;0.0418585182084554;0.0418585182084554;0.0418585182084554;0.0418585182084554;0.0418585182084554;0.0418585182084554;0.0418585182084554];
x1_step1.ymin = -1;

% Layer 1
b1 = [0.53707387120096217181;2.5283899984982252107;-0.3132931290168256;-2.1548652617666683717;-1.6053862782235175377;-1.9247783940914093836;2.9737865865025434609;0.36786782490796904321;-0.00095547170617114873803;-0.17298173471844191518;-0.0077099323001759752921;-0.04551587889294864131;0.60959882955880251298;-0.38099416306687539091;-0.66450810479047572876;1.0411542308699812676;-1.3737524918456853751;0.93351243923656079815;1.8169665979860496474;-0.41822287103958516452;-1.3751880843911181707;-0.42329944657128720786;2.1362193885397871007;-0.7267179049463858842];
IW1_1 = [-0.3162113686087856812 -0.49054680464682698382 -0.15586338896339693716 -0.10681472757241387839 0.73223324142462187236 0.73419971564136243813 0.75199836367892347599 -0.27639075124958312202 -0.006840273737785255645 1.0035109630779910361 -0.5575836413537819114 -1.3827435565536845274 -0.61554906173952539383 0.09372895316698802437 0.48471794305354254373 0.027381487166379534642 -0.32315336637030744882 -0.86618995561411449291 -1.0917930700123097409 0.033725322290394849079 -0.20753901486453027458 -0.12081038338823639477 0.12781139688997295023 2.5236985068717499026;0.48848690044291537271 0.6392604308075472419 -0.43914667388581607455 -0.11514300381774514315 0.48426797865748444361 0.34532721723410414461 0.048595709039227830139 0.16160390626605752873 -0.30169515203103203227 0.65192738953605933183 -0.33960090602442249974 -0.33177170684634643694 0.25718986342897115493 -0.17157835313217181805 -0.20308368986782185384 0.10404993708192408763 0.25091643580077821474 -0.1357387982965337081 -0.15418794904850940952 0.26583629197346791972 -0.082971185896572902108 0.46386096501138029957 0.38438068570259470436 0.20833103180178413893;-2.1991459826158723523 -0.99777474859780379557 0.39364140352073329066 -0.14962754879864370583 0.41679468983977280283 0.40434703727961507358 0.66234408128642829894 0.74664025332087369247 -0.26478826310134034872 0.16516840561866108494 0.056661188634759086791 1.0429359648128655458 0.2901796811855772984 0.69999483995645939149 0.94555997399767144351 1.725390181363091413 0.51862445139079083045 -0.10373196887272789768 -0.5136432812983123819 -0.82098617064845380575 -1.7389048336199675049 -1.6028887195309946545 -1.2031499656267179432 -0.82006567536813335106;0.23997357628113374917 -0.5897770776581291452 0.13933667783886244385 -0.33650936426519806322 -0.042332491703776169156 -0.066086180071814534798 -0.11106039431173231335 0.099418954232110168245 0.10555964316228780286 0.23071366577887689187 -0.090833544301903351714 1.4900322152418188359 0.0010115871307514283373 -0.42398852607270859361 0.53510165516797447705 -0.31173898270366745544 -0.22862579545219566257 0.51872579645292304917 0.52212110329881378235 -0.1691135995260816538 -0.65291782990777003093 -0.85037664375004007322 -1.3497583026555368679 -1.3351205382569211189;-0.8369166815201027898 0.61692394631460290011 0.6124243748230364659 1.3717026573267785405 1.5393373072457570139 1.2898943144024426211 1.0536201941190705966 -0.42184923043057964698 0.18804342916059535451 -1.2382041343337870654 -0.74607947101090943409 -1.3468630121521196763 -1.2247775554015103427 0.016037279456189247606 0.4919990605157303909 0.73083418322758775254 -0.13378846164199792446 -0.18464352426830954457 -1.6525630277797689338 -1.7857883965058956033 -1.6177646435814154735 0.28736562936246756728 1.7106135684315626477 1.8270073864091651572;-0.70425849489477643228 0.14444281806599174045 -0.0070221682163322165365 -0.13982639896178392092 0.59698247505238666299 -0.014359616087038199958 -0.80584671495651871709 -0.32282696552757927932 0.024747667829768262016 0.98655729745605480474 1.4057323539128454559 0.11890610259851364106 -0.43114023113912991469 -0.12761233896579771141 0.12890285795929257162 0.43671940216426002879 -0.5263669057288160591 -0.20935386500099964491 -0.93220341572424281207 -1.0385433240481334316 0.35457534915630278816 -1.33256817378571224 1.2257054701751133319 1.3331499274217297746;-0.45780269741841506104 0.45859628310032218845 0.36010231919541046963 -0.21080460782029639133 -0.21334138444015982028 -0.13161270320421997182 -0.995613425088052173 -0.37284590817962015574 -0.65155614002467954204 -1.575767970819454078 -0.12209858287894444218 -0.89224408235446417414 -1.0484943629855378866 -0.51996015932811423532 -0.75046054899150282935 -0.45729990746631510312 -0.072439619158546963984 -0.26760247564783989915 -0.13924756400386856248 -0.51317755983566859523 -0.45353324122440158428 -0.2780980341835993519 -0.76162015378590741665 -1.9497742362692183082;-0.58316183672394417137 1.0395059891392917084 0.085215708972337864124 -0.51491200127025049671 -0.1647110182371436804 -0.24908579721508924965 0.20687650101972651639 0.28420061797511264601 -1.2693694840519584854 -0.95711965278258137602 0.71930543916598554954 -0.5692580578092617527 1.0300581579174994395 0.74114212467020368358 -0.30444539873135273433 0.21229596227026592548 0.53123964951251223532 0.73958264546358265523 -0.27576230846343718905 -0.612323633333006212 -0.45412734753579769853 0.2006366629651053779 0.92501250721596151028 -1.4059821370693008635;1.5694454473356973523 -0.15957443912008814624 -1.6772670958960029797 -0.66602656620296718515 -1.0040754542323422349 0.91799081373827595698 2.5340819727335284206 0.027214699574621362826 -1.159746401725732845 -0.6378186304630949488 0.70580342174929566745 0.69507683734261827002 0.13437522181320377124 -0.52188551617026368579 -0.70518421261850761095 -0.72487181573992387484 -0.59974821766985519922 1.2565940617465292117 0.66009386699570216095 0.99458099288214518729 -0.80712950381361581176 0.14364605760700172032 0.28995507399874148602 -0.42400664314016656142;1.0360368772122725556 0.61397883477683745657 -0.34582298469697991816 1.332046241425353994 0.27133614680185269563 -0.15382267001272112439 0.35686939958185004418 -0.38369534489789192122 0.00077499811479722971463 0.0032839077713235041711 0.37661404076091486992 -0.64426758600821509848 0.18448734718825410273 -0.077167991771524904743 -0.86992819874765525689 0.25916143062098639938 0.036535038470484115791 -0.037787491046550873708 0.16233015361253716469 -0.049997993831306875023 -0.4649237285206228032 -1.0709088151866603678 0.15540853922831465717 0.34592341884428839949;-0.079533729567976954589 0.1355682698159412225 -0.10379441810535645907 0.42615554506911657029 0.091937273559497184605 0.75777381349372552322 0.94787726739302324841 -0.58585887439180561742 -0.33278881315768471527 -0.27524609200272232012 -0.24265841046781930213 0.025662572806737414532 -0.18926855588524540974 0.054588140913973071111 -0.33932898650738640978 -0.58599272915620770341 0.44553137700874095861 0.52348506867003286036 0.9000879944350670403 0.16354523975192328256 -0.15037554260015070784 -0.29184971079865323906 -1.5991812066180268737 -0.30139047381475625453;0.80652430069435254723 0.83229163303622821779 -0.14885603983219797275 -1.0440944783826524578 0.29267379622447603493 0.095565816391916233452 -0.0043569556745308365975 -0.5136244906485181172 0.26498914569616366377 0.20758851888986434853 -1.2687947629245586167 0.10059035842667539418 0.1753420218307099876 0.73977294881395705417 0.37763758795607715868 -0.43998254658127239347 -1.2487551866339012818 -2.3128250779454333497 -2.6197119131718271667 -1.9682327684638902809 -0.18301379932648428883 2.5572811400827668571 2.1280320126323202246 3.1160085533667953861;0.8600983412129512562 0.26233806869330050793 -1.0197939019004211847 0.36778347230362262721 -0.59803111406900810731 0.30732654848378759826 1.723047308317423143 0.51456717220111480859 0.92820166360953826334 0.097735023676980309348 0.11881575792588927598 0.55810382598521868225 0.6043870418563467295 0.35354737037506217545 -0.52066450077480219694 0.0050335332533063756322 -0.68830342899203234008 -0.20500725916427234297 1.336337413137433261 0.61192814141983564724 0.018689961575638885244 0.18942554736020250639 0.97283792813942715494 0.98121814975827992278;-0.96315830849301353744 0.67072589047665864825 1.8154510424109706612 0.65110861243723161529 -0.083017187705261785702 -0.1102252259666099965 0.67718960954614348946 0.55485076062120453066 -0.16906600042018402053 -0.23329197801793519207 -1.0235598958532874381 -0.30093090422501583836 0.5730751566597955815 -0.3231857589962118249 -0.22589397459742974195 -0.15443311598558218112 0.27035609458243003989 0.3282703921344897191 -0.36990170385103943174 -0.99682858531930151891 -1.4270674976880803886 -0.83904965788060148491 -0.065661294616993659545 1.9263357317517253442;0.46487972245071640387 -0.98641869035107310193 -0.63848147440381330942 -0.68263916339894192831 -0.30556188734917427707 0.11805102939524940442 0.034736555900315442547 0.15301938399079381692 0.53088446005036105113 -0.20970371669968093653 0.075742540884975867455 -0.097231356246458428005 -0.21189590517878342801 -0.090487494155162273568 0.9042718749773068776 -0.044953752562024489048 -0.086474442242032267814 -0.40661054387602868498 0.71514376406754875948 1.1568092120073221185 0.072109400259299738511 0.8538966530210307937 0.012512736790547322047 0.59940411940935445223;1.2772226927386802764 0.20997849194169385112 0.2312306529159294799 -0.55874561872854766609 0.053486339692304638027 -0.28429041165038937411 0.71342947133632961254 0.7069604378964160496 0.43388172462540408603 0.20946934009527884424 -0.51652253676874759769 -0.16735391247457398478 0.18218407443417566904 0.92131287358903246609 -0.12689454055152468714 -1.1210213741737125037 -1.3082009302308921228 -1.4073546154883442849 -1.3202214032610224415 0.058783408552576923989 1.4821073910023803144 1.1726828373085620427 0.6016896899756313255 -1.3505690946150443743;-1.4791830955515630208 -0.16208763783641375045 -0.48408834886765444994 -0.29486194249750319329 -0.89266605800413090233 -0.64372349405093054475 0.35585957109244481522 0.2096810016952345701 -0.18457306951887403335 0.31075463088663540789 -0.38505237136467834747 0.30385127013519447337 0.62014823870032920183 0.21260570767279693416 0.024366340473597869476 0.095782787220109549819 0.44447885967895761627 1.1974146835684300605 0.43541890981638481373 0.15741922479786063516 -0.61971620221581147359 0.12825719295560578104 0.2403325811528333189 -1.5377305864356265452;-1.394823714694620076 -0.17568111141456432822 0.59848073341331531338 0.58364520925194063317 0.38223528579841520303 1.0135904412736409519 1.7108354753124466185 1.8173969976694646089 2.0726068394113394966 1.0707068367415428778 0.67758451697135579916 0.19904554049135719795 0.10925019621569044548 0.83442405422202903242 0.57839051326835599909 0.86176107505136290143 0.68452540109152859582 0.39516182484952666609 0.9526204569369250974 0.40085475719968338693 -0.24332831723482600816 1.1075427016040428896 1.8595480718551726795 2.408727146401572039;-0.72842795394101211848 -0.35837701648061731641 -0.73148898744542212302 0.17683357513387454318 0.59845452176336788597 -0.38220201658824209945 -0.73561622724914943472 0.30535270838079509037 -0.14899580693250044638 -1.0317963437079347155 -1.8159639001645710987 -0.73806367650637949573 0.18626662846410751984 -0.24734437690164345902 -0.1391497998038931927 1.0463931731033406791 1.1027042747443869253 1.3220398640815407276 1.2030775285722863366 0.40639503190801534727 0.62049794192496265932 0.053603616599118025787 3.0333280728286031724 -1.1299709478668331641;0.78921183792689053593 -1.5673484023937145349 -0.0049361939310919771343 -0.036026377692810591935 -0.58100991666024548454 0.23567509816164511349 0.62904832987601211336 0.40612362741075935801 0.38783597034449857066 0.33105212492460733831 0.082798120544630704476 0.15735184672340588041 0.031847976908432017173 -0.91559555552524207744 -0.23514888139992518035 -0.44576436057281154657 -0.49080634634290976059 0.11658153455342430693 -0.25952164343233102839 0.99900135757116903523 -0.026713632219156038111 0.4934928409879093536 2.0829711310695886439 -2.5110335713866129836;1.6527326370173793801 0.85148781014422403324 0.70699851021348847357 -0.032491613069711038075 -0.49966345313690097019 -0.30643757687157013869 0.17154822304553130063 0.097490561211105997153 0.46980857001799281036 0.32676571791918029852 0.60424762226085204642 0.22896528415307010329 0.040194043804126534936 0.38467118195971200523 -0.071885906851687372821 -0.49135441905468740798 -0.83417878363219766236 0.095135731311350196782 0.37234784282431659941 0.023261228906333978467 0.93454310642734428338 1.5129299485898255462 0.11645284607280981248 -1.9087486851533719268;0.36540721048331331611 1.1006998397585592286 -0.50940903748986043897 -0.77058096013829591175 -0.68538264417120842165 -0.74849958666092852866 -0.1654804740985621192 0.58471015496933498312 -0.4205024077838590002 -0.21992699164761425612 -0.18010144497830182786 0.91098562237746483206 0.5183584931496293402 0.70921527764524705528 0.011639112047956073209 -0.17617138523173347942 -0.53506892253697924122 0.17530253209656432301 -0.44270905356693307509 -0.49577935381479598664 -0.045411351710422917516 0.32517853074264818636 0.26963826189595629934 -0.062517498407657273729;1.0806256372843996427 -1.4133666631456254237 -0.39241575704442532846 1.041602114692397052 -0.41625563014218242008 0.040394418346712306078 0.73388917078455773169 -0.3359903949142830637 -0.20413165847251155127 -1.1293996025394776872 -1.3080981144444139286 -0.19619187670174645377 -0.57533125267094253896 -1.4204765618462225074 -0.34449748250253170445 -1.3402964504457957062 -0.89350697831793568504 -1.8854410856066794455 -1.0501811975888319939 0.80796926871474095133 1.9104248315291347815 1.7959735654904762647 3.8250391614846561694 3.1161554087922036516;-0.029034886484725550698 0.37870813546653847581 -0.8081594725349661168 0.87032222510227486012 1.0592641629951460303 -0.5429298460903764223 -0.72352355944721002956 -0.71891693044080717812 0.48751781498491025824 0.59380719577055396385 -0.56157601020621794596 -1.5523772114916147835 0.44926656984791807359 1.219552174920236931 0.24477261828723326231 0.17544537224078271542 -0.065890561310143272444 0.21662296609163195216 0.1767161029982970144 -0.13778880142891020144 0.96408638037377691887 0.327678186247157055 0.085935844914725861843 -0.40221755773813339108];

% Layer 2
b2 = -0.68123314878319185528;
LW2_1 = [-0.29492937245217076825 -0.38297768361198863962 -0.055827828009102582751 -0.30216098443589234357 -0.10891716689594604928 -0.64350099643574332209 -0.03505309960789327467 -0.25521527749963002218 0.43897250601037524076 -0.1935608850456523311 -0.64565427434724020905 0.075393091169539724894 -0.075910178014694060233 0.22985723756626372238 -0.2132386286316435009 0.23681820184266466622 0.22791518762746362792 0.058509524022947054234 -0.15215775737368736342 -0.60049348132299307235 -0.071483455363795397886 -0.68959277429757614986 -0.06648218970437576314 0.20863855570877595791];

% Output 1
y1_step1.ymin = -1;
y1_step1.gain = 0.0418585182084554;
y1_step1.xoffset = -11.03;

% ===== SIMULATION ========

% Format Input Arguments
isCellX = iscell(X);
if ~isCellX
    X = {X};
end

% Dimensions
TS = size(X,2); % timesteps
if ~isempty(X)
    Q = size(X{1},1); % samples/series
else
    Q = 0;
end

% Allocate Outputs
Y = cell(1,TS);

% Time loop
for ts=1:TS
    
    % Input 1
    X{1,ts} = X{1,ts}';
    Xp1 = mapminmax_apply(X{1,ts},x1_step1);
    
    % Layer 1
    a1 = tansig_apply(repmat(b1,1,Q) + IW1_1*Xp1);
    
    % Layer 2
    a2 = repmat(b2,1,Q) + LW2_1*a1;
    
    % Output 1
    Y{1,ts} = mapminmax_reverse(a2,y1_step1);
    Y{1,ts} = Y{1,ts}';
end

% Final Delay States
Xf = cell(1,0);
Af = cell(2,0);

% Format Output Arguments
if ~isCellX
    Y = cell2mat(Y);
end
end

% ===== MODULE FUNCTIONS ========

% Map Minimum and Maximum Input Processing Function
function y = mapminmax_apply(x,settings)
y = bsxfun(@minus,x,settings.xoffset);
y = bsxfun(@times,y,settings.gain);
y = bsxfun(@plus,y,settings.ymin);
end

% Sigmoid Symmetric Transfer Function
function a = tansig_apply(n,~)
a = 2 ./ (1 + exp(-2*n)) - 1;
end

% Map Minimum and Maximum Output Reverse-Processing Function
function x = mapminmax_reverse(y,settings)
x = bsxfun(@minus,y,settings.ymin);
x = bsxfun(@rdivide,x,settings.gain);
x = bsxfun(@plus,x,settings.xoffset);
end
