function [Y,Xf,Af] = TempFunction2(X,~,~)
%MYNEURALNETWORKFUNCTION neural network simulation function.
%
% Generated by Neural Network Toolbox function genFunction, 06-Oct-2018 14:13:30.
%
% [Y] = myNeuralNetworkFunction(X,~,~) takes these arguments:
%
%   X = 1xTS cell, 1 inputs over TS timesteps
%   Each X{1,ts} = Qx48 matrix, input #1 at timestep ts.
%
% and returns:
%   Y = 1xTS cell of 1 outputs over TS timesteps.
%   Each Y{1,ts} = Qx1 matrix, output #1 at timestep ts.
%
% where Q is number of samples (or series) and TS is the number of timesteps.

%#ok<*RPMT0>

% ===== NEURAL NETWORK CONSTANTS =====

% Input 1
x1_step1.xoffset = [-11.03;-11.03;-11.03;-11.03;-11.03;-11.03;-11.03;-11.03;-11.03;-11.03;-11.03;-11.03;-11.03;-11.03;-11.03;-11.03;-11.03;-11.03;-11.03;-11.03;-11.03;-11.03;-11.03;-11.03;-11.03;-11.03;-11.03;-11.03;-11.03;-11.03;-11.03;-11.03;-11.03;-11.03;-11.03;-11.03;-11.03;-11.03;-11.03;-11.03;-11.03;-11.03;-11.03;-11.03;-11.03;-11.03;-11.03;-11.03];
x1_step1.gain = [0.0418585182084554;0.0418585182084554;0.0418585182084554;0.0418585182084554;0.0418585182084554;0.0418585182084554;0.0418585182084554;0.0418585182084554;0.0418585182084554;0.0418585182084554;0.0418585182084554;0.0418585182084554;0.0418585182084554;0.0418585182084554;0.0418585182084554;0.0418585182084554;0.0418585182084554;0.0418585182084554;0.0418585182084554;0.0418585182084554;0.0418585182084554;0.0418585182084554;0.0418585182084554;0.0418585182084554;0.0418585182084554;0.0418585182084554;0.0418585182084554;0.0418585182084554;0.0418585182084554;0.0418585182084554;0.0418585182084554;0.0418585182084554;0.0418585182084554;0.0418585182084554;0.0418585182084554;0.0418585182084554;0.0418585182084554;0.0418585182084554;0.0418585182084554;0.0418585182084554;0.0418585182084554;0.0418585182084554;0.0418585182084554;0.0418585182084554;0.0418585182084554;0.0418585182084554;0.0418585182084554;0.0418585182084554];
x1_step1.ymin = -1;

% Layer 1
b1 = [-2.1174789885250762111;1.0652316381996114192;-1.4573648426751422136;1.0765025888411718924;-0.87353004831319303047;1.1492216212980652656;1.3782080533044638315;1.1445160092650690231;-1.8433554845937007993;-1.5913570085204680193;0.97570238141639564766;-1.0094350189550231889;0.90433758886221082829;0.8005199987417855878;-0.32495077097381763753;-0.66791931214250510607;0.6180898924555577878;-0.028886849020702654034;0.14634977219658987235;-0.50969677819104464156;0.73845079450201567273;-0.13638220769955952671;0.13375792258845456417;0.033226649283797510259;-0.10008558559370805963;0.66852960135557160104;-0.036525837383383059909;-0.78137378177916905209;0.25373378221311082559;1.5319237544699031428;-0.084254603681389456105;-0.70727007887540505049;-0.68585902703097512134;-0.79210908902343846183;-0.88590260133322140668;-0.3433348859165981648;-0.80667073820396628658;-1.4065840380321315006;1.2021547925007531887;-2.2153250210654764629;-0.4239220296091006368;1.2899957534056099018;1.211253515153513316;-1.7819323401358864167;1.1474714516547417364;1.896563079389649964;-0.48101103284182078479;1.8416431526082739367];
IW1_1 = [0.37298585997323191465 -0.47388873940635256599 -0.13421805373710868348 0.53083975678189831982 0.27277005403116938442 -0.26034200957144032484 0.20786737546190311998 -0.30503424648646798589 0.17460418010643929954 -0.7130277464250230901 0.15505003171185069433 0.51959506322684168023 0.44398221827877204504 -0.083424703337886374488 0.46897864372621250739 -0.19337976880467389051 0.018371502138182095598 0.19917528508307102975 -0.65854649784001806356 0.010512943601605984068 -0.75664889668240187248 -0.79414191689133784013 -0.20770510773431066776 0.92932338075745479777 1.1952866531781947135 0.62500831572195303387 -0.76489658130148763249 -0.47022327833895050109 -0.59237690933843922814 -1.0024503198443355245 0.18026118646498481835 0.021022344763423628233 0.46626145856698214542 -0.048846222734147660971 0.68871975868834611756 0.12738469449288811197 0.26656823167788312734 -0.66947701250256241856 -0.80746410921753619672 -1.0095836662076065338 0.1816443780449250589 0.61360316249420299162 0.047832792276402830156 -0.31315037214272994914 0.31941003828543018672 -0.20848442017203849819 -0.81895483425763837548 0.86691578545715741733;-1.0202305344072892801 -0.80643796669620460005 -0.21406316302193834078 -0.58475852374098036268 -0.42428143320461891852 -0.43992116043827605987 0.14007585446326037415 0.089672576437328677113 0.6788875603286762539 0.61672023277387078011 0.37242457379203236512 0.39866164487191479981 -0.05673054728040478889 -0.018949879151764690427 -0.44903988961898644305 -0.36573461152475644775 -0.66342404309058677914 -0.65255715548093806699 -0.26458004681551972048 -0.36374758793354516895 0.18334529559685813771 0.43384612370768421696 0.77697552148170800912 0.89360771985831566333 0.64435715135443438761 1.056493278726022611 0.5200054800558783219 0.58992093901400299849 0.50658646259351447494 -0.099968458575068752658 0.35713763879847093552 0.30529845721512927081 -0.27002189682446053887 -0.66621502244299790618 -0.21865350220881185628 -0.69985815336692835942 0.11543697067665159572 -0.026218896838095764878 0.44490759293738202373 0.36515471725774939493 0.22409852219188988731 0.23059863383460835196 -0.047077038057730183351 0.083920402481009320761 -0.010498485526995740558 -0.10634239286762023347 0.089785796080430579913 0.14576426109804260789;0.40426641476233077244 -0.011012582838120420214 -0.35142600159439568719 -0.17543813618458298231 0.19939605150469738581 -0.16161820254897685256 0.12120742723391368656 -0.13995367737799707664 0.46146385037501769233 0.76551254057041018264 0.24521410658477715838 0.85940137541275740674 0.95490087664340661533 0.95166095548050877451 0.38698662633778846409 0.045870180283592826287 0.12004273226939574104 -0.44801758556930287858 0.19001903387140595125 0.31254580453763747272 0.059566904298669398621 0.71107906502069206933 0.29672633169246670493 0.1414770061763601372 -0.87265928566051476079 -0.35018187683065293836 0.3381908128354137455 0.3390685631084697782 -0.37159923126865979093 0.00096190361579726046948 -0.086138543486546204075 0.22651548171969637657 -0.47151178748500455207 -0.35101896036227242526 -0.54818821462263334077 -0.10290391414428648464 0.1490088712725110287 -0.45793837520998920132 -0.31786550333290597425 0.073408206477191761952 0.58731031310313497329 0.54255094372939038916 0.085790452327256488951 -0.14097625489976969848 -0.072001891559110603458 -0.5316266429394167492 0.054030605855039610941 -0.11704608190105099397;0.1912743650351722835 0.45960314050991818435 -0.21214592318267216919 -0.34089013121872951961 0.31572330089495465044 -0.18693096645332263339 -0.32359400191707532457 -0.10394958012232370648 -0.44248189760422096395 0.039021968903033006637 -0.13950869078551186853 -0.20341116194146841023 0.20580469989072003312 -0.10086034545692949826 -0.040345815702227373623 0.4121293838254792008 -0.51945326840961281167 -0.43314036208319878218 0.14567747330555275154 0.46939411617631549012 0.26042754427426134667 0.49641652609339209645 0.027719061020275045232 -0.068866472722482224844 0.15040645839648555948 -0.45572841950699666258 -0.24518489316536307143 0.340896451500549591 -0.029813920138110718006 -0.27136423321165498157 -0.42183850363809005657 0.029928933417635680825 0.2566412481277466906 0.27190697540135633226 -0.20771481883450607087 0.096021325331208898235 0.3191051370382712582 0.17101730462483458184 0.30698076522337353067 0.30553149208509849943 -0.26634852140635617568 0.046614073401357238036 0.074139916760762508696 -0.035926185093358570244 -0.18727659678872282667 -0.34213165018148866681 -0.38575870917357379941 0.27627961700846648263;-0.66881059826285804704 -0.43122906603052141294 -0.82728056824440976413 0.2630113510211654626 -0.33143986828854482551 0.094811121147286736566 0.48805406466933420884 -0.11074845833303545439 0.089197371385430504476 -0.72340247545246227912 -0.1485800402361825423 0.019668197808003294591 -0.20608139506256517581 -0.10529710733803943068 0.71259907489046292461 0.69381228228777069855 0.34811243830713090031 0.32399088766230466074 0.32881611216507566908 0.11345615397662381363 0.23112869929816812209 0.27131106698559553925 -0.10487433347805837081 0.36424774723196368109 0.94127927902170138719 0.37341567700592626089 0.4663412168337464081 0.56130449505529012022 -0.096374566739887285172 0.0028799545043197531669 0.38777702859781859601 0.21565199903067422404 0.23242240494514862514 -0.1696435548701449858 -0.53946748721954307371 0.60898448597122178949 -0.069053712288351332127 0.42603351937820183037 0.0437256769402709633 0.14948097737701679377 -0.1405734000087692781 0.33863667806803093852 -0.48513690397953179723 -0.32562602953481456503 -0.49139436273531755806 -0.59222829485343309042 0.20160260279054578736 -0.024761415577693467877;-0.74082601762029642867 -0.62598400244345531185 -0.3025769683754085948 0.03038895455430210002 0.17310590466505765272 -0.19437226471690685625 0.41507928386866477233 0.17892849497854346197 -0.055614794875528603124 0.55092068978605002183 0.13178986001961426333 -0.28270069149438364908 0.0044120703584160370081 -0.36419863908270838637 -0.12101142113024618285 -0.26944825982981507329 -0.5500127690709709638 -0.50700196724336943355 0.21612397541082811747 0.043458020947179480664 0.39318011923442591771 0.37605118244187163423 0.31605501601785224164 0.16882300702261202052 -0.17692434233480863748 0.030546220854675391887 0.6137092637879982826 0.35117660263230815465 0.51789729045550103592 1.2284062718167061412 0.28397562474072352012 -0.24449725416551532087 0.036600908552798974704 -0.26015613262425713037 -0.0095518789250814070679 -0.50945441504861765925 0.28124772508900502954 0.34128474309834461176 -0.14067789815577450008 -0.14431704316740584515 -0.25125539526051787753 0.2576130763330763962 0.057113873648282173501 0.50363270906860835296 0.34801423982028850679 -0.25140030912095179261 0.26191757313555402709 -1.3145062831003127002;0.67629213450023661913 0.74512643451850779641 -0.22662238270538881402 0.51776937853415883062 -0.050781300446654867309 0.017242469377995124635 0.01820517996238694286 -0.091268169483090383354 -0.21332696971693348997 -0.36451652542700141435 -0.067709772985168392712 0.086283121416258060088 0.52589941289070030184 0.53788683711179752223 -0.010950497039224606211 0.0095626352070749473522 -0.76874514838016738683 0.1527948815994484566 -0.26407571275235802721 -0.10226761540601801703 -0.30409044024234949122 -0.55207406322832341949 -0.75497556349959027422 -0.026625148316346512745 -0.58782198368992355508 -0.33598445301081603098 0.20747344035322801137 -0.030768380198552380822 -0.14651205091228525212 0.18467656713160346404 0.18619227559123349702 0.043539722057152910328 0.26439173915843755536 0.028084590379136388505 -0.024417028846751606674 -0.50932428617526837034 0.23349198553981628801 -0.0047885205619764004137 -0.79233559344199266938 -0.60110340379969828817 0.17665327685583653849 -0.14209572630862821185 0.39945781893576748356 0.35274140507902573827 0.35914975068927040835 0.28938052013189152767 0.74782017288578317427 0.70276630147257179715;-0.57320928748276300801 -0.63723350073788709302 -0.89634422772255728518 -0.32407262229899364003 -0.13365262596485141811 -0.63861718505328313178 -0.84123249478474515506 -0.62360592065369591097 0.27783274463301455004 0.22123772878690792232 -0.22213657728738245289 0.0061686832953533818347 -0.45709139667588294387 -0.64010976181114109806 -0.062938466306345058898 -0.32837281365646942 0.17715004494895386644 0.04607696701644772852 -0.71521483572310828869 -0.2916496408843001209 0.67671666192859969424 -0.15404538632423847577 -0.19983470987691517862 0.34182781092983183235 1.0329918127741362088 0.9297293593334704509 0.63315094614348665925 1.673153139992176186 0.21176485468466466067 0.59162992740011599579 0.63973864878100383802 -0.11320022042271772611 0.11565387185732331488 0.28281775937253139652 0.32594703338036623563 -0.47224951232401091161 -0.32795770358738951522 -0.64727791143816759689 -0.54536414048935899501 -0.3292779082074930308 0.21479688012000230923 -0.53750524562346613244 -0.39423264324895757049 -0.0044355308512690136413 -0.81809229309276998432 -0.22123657022490950119 -0.19960159812672623181 0.63315979548409573319;1.0560849297954106873 0.028968511955536888069 -0.14904446111209548875 -0.63616002652400904793 0.11249109280438368552 -0.29439827063179552225 0.30980921766061497724 0.0088940520684899007642 -0.61082351167203330355 -0.409107361957724458 -0.34619771397450860295 0.17537989506521772798 -0.51095908515788779347 -0.1464197907942583754 -0.091309734511978199456 -0.3830975450621607048 0.30033218086232871258 -0.1229962024727050407 0.37455137616036221493 -0.3461664067800109823 -0.11132657742499793563 0.08083786457241559642 -0.013716260965796582549 -0.18434800687939856267 -0.34374329660824037846 -0.15988953274043163355 -0.057549455265706601914 -0.57509138388440605993 0.0036770450817437735219 0.1220949262502136895 -0.36606662182994131882 0.02606331937998854209 -0.086776489032085235564 -0.56385729174411758358 -0.25378126392997518712 -0.058493675611231053801 0.0043521900126138220177 -0.30036105115321809489 0.1617986963256098365 -0.26434077715232640049 -0.50797573081676083984 -0.24444800822216705694 -0.18566428090650100025 0.35241973516880659156 -0.42361333103973791703 -0.33685752034093163765 -0.79719990817011043838 -1.1800335414245550769;0.20541429206200889634 -0.0032530522680220483323 -0.048123126079632851104 -0.21313389446950559147 -0.10361147875698913101 0.27481190348568407256 -0.10660954942491894515 -0.32694315211275726263 -0.34928544677629935755 0.15101393582067468291 -0.27912768654903968857 -0.197584727531027321 0.21550611899839955399 -0.23610953542006396511 0.2242165635743990082 -0.50309279839892506736 -0.64921058998152358921 -0.42197268867736109632 -0.14632381241022629492 0.28062942418305714121 0.19683671962311680148 -0.16936409346295444589 -0.22547193529972670012 -0.037013123021083144115 0.41186819193008616935 0.40353579367896774688 0.29318528262215731717 0.37037670694475599564 0.2615623852130454785 -0.17780725372425498776 -0.36544645502225953093 -0.39164122908160514669 0.081677603581862157078 -0.010090951156193933569 0.32777936339497965035 0.060568746868076082934 0.60712078047169482087 0.73006404339722297259 0.73435076288375489284 0.87527090718423872229 0.18691343753438405262 0.24420371273318064453 -0.41128532306017573372 -0.38839004155852396849 0.14605080135628401017 -0.50912533496167833302 -0.24747322388232800838 0.083020570843923099935;0.45794552638708285741 0.10514381059293943788 -0.4284521894177233392 -1.2382710667035523588 -0.091234519947387821004 0.97255422137604630173 0.2230230264800007467 0.19358904098731796739 0.21307059750687265542 -0.14917828275895925194 -0.60579911016846255123 -1.3156612731629977464 -0.27101216636598807197 -0.48017659710435495191 -0.24007920111379799089 1.2244764523774380738 1.506822337526876332 0.80292504428611077838 -0.60320649959216654512 -0.13991667878634420075 -0.52105401007804674762 0.33573220896264488466 -0.59448631310457500376 -0.097539910610644237066 0.41270845994980231985 0.63112860258631642285 -0.54313521493430694242 0.71527723397252607196 -0.21450787931622850024 -0.87950233401257582599 -1.0159373178880177768 -0.10465764052556449093 0.0064452799097874016038 1.3736543690436064935 0.27737891149796067847 -0.29749591576045475438 -0.35662792637549045605 -0.88429583036752978931 -0.5717814329059291989 0.052132990775506843351 0.83247720392211821405 0.15335759988973884926 -0.34424215364706339804 -0.39147296555646493577 -0.62642481963744178763 0.11491792119408457407 0.66496851153438529813 0.77660648673042331769;0.24256695004694289741 -0.49963180014307073673 0.33031594104263761746 0.32768849905294017422 -0.405696474945822394 -0.52405104850488248847 0.59127816989021120264 0.70894899700779667739 -0.1770743009567518067 0.2105824172900469804 0.35535452385335541958 0.47488526995511576301 -0.10581980364272323969 0.068499188803252772373 -0.75385048688822020591 -1.0157975890675012831 -0.31531629360008878171 0.25007055842659414724 0.92983776327644696025 0.32829569467761787749 0.16636606413002610894 -0.031944606618204710036 -0.33179729278444924923 -0.31744805941315912268 -0.13539210419349712033 0.1315285712003557983 -0.11430214311540005945 0.60208800584426114266 1.1496382122127277725 -0.22267077490664108352 0.055419913376311275011 -0.58114817089901726899 -0.5842479811515102206 0.21371455680245285413 0.73298524979264922941 0.59556855206971115457 0.92358968255264772829 0.38580449945701800196 -0.49883884530178757011 -0.84537705886476177675 -0.60204738177551775369 -0.76409998703325554548 -0.51665846048389529876 -0.46484982236931121635 -0.43412058891141547257 -0.066156087969019852779 -1.0203271514001313047 0.17570106779505381689;1.0934640446080823306 0.20638963433912141388 0.40585653294658685653 0.10938575720027518545 0.0051186560718989582153 -0.10811632310135958768 -0.24401532290419125637 -0.30353772625862690537 0.098989671457096597984 -0.11597299532547167278 0.054245509177277641266 0.26938316135203893564 0.79582601538574559985 0.031756541970146670573 -0.061727690945154220503 -0.1948104870629548957 0.21407372462259638413 -0.34024127566799694522 0.23832678495812462116 0.59949952052281019199 0.36823818879152458994 -0.54266703702419416544 -0.16774846598483161841 0.0064427097943673891645 0.13845406492613804295 0.36753220355693588806 -0.46461119191266736506 0.23405211726511238046 0.063572860308405754193 -1.0228986733631457717 -0.93455953160948668224 -0.73163775507064277015 -0.37282928705267326386 -0.16431005492753358865 0.31829112017505006849 0.15395663757558619711 -0.43169964522620013492 -0.11106137978119530463 -0.11557554650657086981 -0.74497100303415331179 -0.95371696489185564527 -0.27310123650423501207 -0.41689636333329094242 0.33819243691445660671 0.099234536399865597156 0.28012397312895198631 0.33133160064184830063 -0.24946284371205826313;0.047799024767505048084 0.41669370224135943159 0.1749986563911258286 -0.33728849266585408939 0.068540043427049848757 -0.020427538232294584902 -0.13643549041335678584 0.21877189415717404608 0.077725363768315167134 0.34386483244488624811 0.33050425496385027468 0.05659305439796284698 0.41549738892256365963 -0.63567021696217684834 -0.62780926904165823554 -0.77471908263691735552 -0.57473913416678201749 -0.21737690689217606388 -0.017025322497390443788 -0.20254390678330225217 -0.40969602545924277415 0.27619093132538374835 0.12246590376142241219 -0.3144448915770329811 -0.56915115970476592988 -0.5754130975492094402 -0.74318532350403476716 -0.3928924035044586982 -0.24025100101107074724 0.16006816862497552645 -0.035421743905954733433 -0.056312451545636306449 -0.11601316982410427026 -0.2172897761836076469 0.17917571040030128016 -0.23145339306358700404 0.24890489764301221287 -0.28776310336925481348 -0.39806487030780923764 0.064663038678304002316 0.72418415983962691751 -0.25255786121923484711 0.30605865091423872792 0.035425303777310970799 0.83239409708795109033 0.013260763895951712191 -0.042330329601397292949 -0.064598321139718001271;0.44626684067590804972 0.0047599189644406056376 0.5630908314832437922 0.43014945355437012031 -0.017192424826615104044 -1.1634495090919831917 -0.36230253808414608629 -0.16983005264833575532 0.63858745744512579456 0.50324227703664015099 0.32284034250191312454 -0.19031905168731391709 -0.12480674671715373536 -0.69337331562432258369 -0.14412963271526776921 -0.67873847833501355087 -0.43649539809759141384 0.0025329766707503937467 0.63354542278552683499 0.57774323470986810314 -0.45742709581031909538 0.72671344748012645098 -0.28787120850650738113 0.50114016988682363873 -0.56723846933687915861 0.53068160173103851029 -0.2842328520175296247 -0.36115817758486573608 -0.26350761067383754455 0.56350289652444962574 0.0080610310049679806399 -0.23178352840483715247 -0.43854766152031293691 -0.83746640479197664853 0.84443769867394447015 0.44453832648943780725 -0.48908639472808546067 0.38360746239373616495 0.015758946708306003498 0.11453328154995388866 0.70461012051882254692 0.1816356081360497865 0.048976919568713882247 -0.19992785646826644053 -0.40314726481317220141 -0.42124855273155431545 0.12453490487055787761 -0.022521605437674500905;0.88162209736487817668 0.16626621417070869269 0.23840489331201747403 -1.0290133906620189119 0.083352122873796979929 0.54646227979076400505 0.1242660598420910617 0.59028732300431729918 -0.5836488942664924684 0.1429800832095129981 0.71005988972330258413 -0.43572388756296587253 0.44221303809054862688 0.56890660173704166169 -0.48643396780556075187 0.21364595761260574136 0.5780102578157313431 -0.1336875808410875055 -0.47960929440043537086 -1.0554941921730078835 -0.50605500876904319085 0.0015850760736113456845 0.39456352154511786789 0.98447170117849958082 -0.53821419253743785216 0.23388482687875467025 0.031842876547237490559 0.25873590570564253266 -0.53503578096999293567 -0.75104687550123749862 -0.37026350767703070099 0.07551835369849030366 -0.10509719627800258313 0.97340223067347386721 0.34196001530414416036 -0.21725648414417828014 -0.55759137818066983883 -0.055319736994843465849 -0.057580374944085348232 0.64968406745560181026 0.68582751672941899557 0.58524800236162732858 -0.67714234499833481085 0.044428243096733648076 -0.25510241221710983073 -0.37491576413044602756 -0.58757910912520650015 -0.44758103080374345151;-1.1176794376398879738 -0.74528758625457969256 -0.69418576325106950975 -0.33322276561654845528 -0.51608089850415495015 -0.34865203531429145301 -0.43663218788960922456 0.48012063351282269208 0.20159406000074744925 -0.072733332582473220196 -0.047991291740434316448 -0.081820922905068066422 0.051300734696320085537 0.24103433697808115954 -0.46748746679896202583 -0.40589595030015063193 -0.34852587791907713166 0.32887118550510435755 0.037570711560504621573 0.21521323373306139315 0.15838566106072465844 -0.47312122538906853375 -0.45850210522979095717 0.40785385442223326402 0.61756226162368643706 0.2795142548045533859 0.78814257490107597626 0.37362065079812956103 0.017515334103963650647 -0.25947342574785370317 0.28216500581055153907 -0.5014586183394228458 -0.064178066337729600122 -0.27489743604829119938 -0.22013656031848680139 -0.86008481152388094326 -0.23337708295913300871 0.25072807598418805908 0.5616116753151362273 0.21039766919499461317 0.12735969470420574479 0.45318153150759032943 -0.24177796205362891979 -0.22778188019853090607 0.08137267284844791615 0.11701338593387645981 0.27793254944948214691 0.91344599518425850793;0.41957730039850987813 0.44730468407922058249 0.57351084336629210014 -0.44227651563220610198 -0.38722290642373502489 0.28046581719164465074 -0.14375294839472327335 -0.47343229087193078319 0.032281861685971427467 -0.4755830653976901301 -0.61008091362371230648 -0.70160083412531759617 -0.38210267198017427992 -0.062978922943341328344 -0.21480361317662513554 -0.2155495776126273022 0.43667909550065564517 0.34408972573514562399 -0.26148935879255486014 -0.15852620624674731986 -0.76392928377148694441 -0.49285920373050390308 -0.20546075782206582594 -0.28236257078535315079 -0.85460737853695556421 0.052021602783164748451 0.23144459071597633937 -0.52136575349719305184 -0.38091044387938688409 -0.32383180361577962314 0.17384344287446590327 0.0079306218922942824101 -0.27878022752473341495 -0.078969418900264473637 0.20833992570338819017 0.63947304202441834775 0.22909192905316291822 -0.34983254391240670156 -0.22842722104649432202 -0.42185405066345815772 -0.3778570060172848355 -0.14200780006656255061 0.42459125952158699446 0.17717183772294206601 -0.56624155347132176797 -0.060024442608450877257 -0.37383378573590014815 -0.12982041013342487945;-0.91194030962398664464 0.17373820225347336166 -0.86456122704271964885 -0.16606075602004641278 -0.39318506829072763509 0.018997474522546790865 -0.38962922208240136079 0.75742430896357426651 0.15722195568809593791 0.46755655490955094766 0.34837512577938817282 0.47927030624771460587 -0.18725713934297374963 -0.09514893409516218814 -0.20016377598290321926 0.14705199656770434613 -0.068525454715561054386 0.86068646287051675525 1.1119942274854874853 0.51840116110930978266 0.5138273267197316363 0.28410226001611738056 -0.81905525692467429089 -1.509413172147453519 -1.0267679940392611115 0.073248463417091680405 -0.18553098576363930006 0.19368931192700405974 0.071557013777330341631 -0.96577376742222875716 0.53782148180668609694 0.51202395769415665061 0.32279348569627785981 0.17871986161734154663 -0.28711539066646990515 -0.12694118602225634707 0.39081210203126359737 0.096276750714195391545 -0.094711418574847272556 -0.0082384361959550282684 0.53458999221853986672 1.2567379229290540632 0.77894909663855904647 0.49265834203958280835 0.37282151139105135229 -0.84609453757616237546 -1.4072813106159813845 -1.1882147354789480698;-0.33771340313663489319 0.56350423281856243385 0.73567553143085340217 0.20295623390841263656 0.50222274809237132942 0.66156187332915805666 0.23064619444370193513 0.20993495394807798471 0.13722325049350528325 0.20101247292804411138 -0.049264190669083260388 -0.073106573078157766066 0.22055951351529690108 0.27482434442946074293 0.12965288984467060462 -0.34849335372680967371 0.39972553983352171469 -0.35586405504334267524 0.39926467971549484126 0.37968869667310950478 -0.10766269121933302877 -0.056971258168138375066 -0.29787444268924345714 0.068154644031170427687 0.32981907135775440087 0.6107373063299152971 0.59475787147148606593 0.44287276776980011306 0.11457189840181399021 -0.2682737886546699424 -0.36729581208128936343 0.064400243412648300323 0.25450175198467583915 0.41261070735461224945 0.13269586836084562576 0.11157786242402106813 0.077493192949829148297 0.41376263280807445977 0.020664145586673440813 -0.20212221736097493729 -0.20916889212163122802 -0.13433229461825643702 -0.19852771998292656486 0.12354564823928326778 0.35106214885852538021 0.83000992981978072294 0.54133166470505189594 1.5645957285115885682;0.36954225987456595925 0.25673566935363451025 0.21049582107277184373 -0.021889842211415953821 0.38101912980226793071 -0.038255542965615021989 -0.001969346478215783236 0.13621147492726487505 -0.074738586233207657261 -0.2821008544746675395 -0.042519871340153191086 0.28143453053541095388 0.29606033228233497034 -0.33601551186092354362 -0.79573178311911263449 -0.78676323543660786619 -0.71453159692844525619 -0.37102990914819466983 -0.033294478046352452005 0.90523384628740843905 0.024482002666282060011 0.098465449457967840763 -0.70318082984965113447 -0.091041154841794896813 0.15830085184887715544 -0.31452862483254467874 -0.55483570011265093136 -0.9426554646982039376 -0.51346594969156544863 0.049326523288328413819 0.17739619892294561376 0.15654017904381678505 -0.22155989209279502994 -0.51875490105321542256 -0.86196732085272131929 0.14224454006066813982 0.74220515114095797493 0.80380738501058368595 0.62771439478977719695 0.054709597826401938636 0.40753761073898353562 0.34520461177772260308 0.34982883708423839764 -0.39217038284131794379 -0.0059667363828419519786 0.13898339145458202259 0.079539931126005214423 -0.59218725551298023735;0.2338179178524782964 -0.25878319309360392486 -0.19478196550485032956 0.088112932749541239552 0.1192890572371818475 0.81611888572689683663 0.0039812647305651864549 -0.32290816253008242098 -0.12384397571945611471 0.36182666963050658104 -0.65436053826079165763 0.23710314378824667858 -0.23439009831236687353 1.0333459675434972791 0.18930256776250564688 -0.2887503410992690589 0.14046551447587388162 -0.24453735055811620658 -0.11090641634201388321 -0.07848000955793765776 0.11352909626908225249 -0.12816324936404174806 -0.026629525010898089099 0.32118507894531533875 0.61722558200261234962 -0.35524112522472744979 -0.70151468820776385904 -0.70488304503904686271 -0.30585496134106748833 0.02737701922549819894 0.54797453430962195231 0.21497519468649259333 -0.4890333943380642534 0.59000181080677704948 0.41164497787686060715 0.15876664868571377376 -0.27983731388536636775 -0.10486913011575313415 0.32560027118204526442 -0.23530444977740624934 -0.41988261719941938344 0.29048876600150713712 1.1315483988672185856 0.032972763890162355704 -0.8257018553758094237 -0.30074432915798460231 -0.3466394143151850793 1.2437043337758624251;0.38661038335723496573 0.072674154864658294106 -0.1718481916071991078 -0.55101082655585742476 -0.45818971393723861851 0.23585687806473179529 0.20867090296632903601 0.43526723314113308083 -0.050488515549624767009 -0.70340480604040944712 -0.5879562132712851108 -1.2774539040732317829 -0.90050600571156924623 0.38215784358855903191 0.72052229176860183024 0.66133088791042693444 0.36365122873618899169 0.050933785404279313669 0.56609586174396908653 -0.0884311991767078448 -0.5788574970928406227 -0.33897504648775406144 -0.60982527253605067763 -0.3550019831698531525 0.54048402386447169654 0.022480772857695157513 0.067576864214478671311 0.13034408479685061222 0.54936765776869078692 0.70856295233090216268 -0.039728840917973254343 -0.47807965643930766531 -0.0084370515328554794576 0.26911078552823253229 -0.065393972901063412984 -0.37985825084834684562 -0.099589987277410918498 0.22562721646745514947 0.76989655799937750658 0.41304587645378831873 0.37795312490024901564 0.37131148925133677929 0.79588672571775442854 0.40418908548864418417 -0.0046426405495027687695 0.067828366195711989328 0.41898970459211248851 -0.65363239660805982911;1.4252464802909925456 0.82687036104502775746 0.55438209452124265209 0.75359929748954690432 0.065184551182490418908 -0.21649508405272016587 0.20846591249394269552 -0.29610364099634267632 -0.026218788944551502801 0.44821793606557303047 -0.3859788913635164298 -0.15151826299795778663 -0.65720521399803599749 0.019943775359280928317 -0.45024033573631810912 0.019596264759611396744 0.11513826634758982104 -0.051412109596993403604 -0.029979184124022728586 -0.13031430096672352859 0.35273512354731240137 0.083104523156662696293 -0.42078155953312140758 -0.68121061645358671477 -0.74182430982454994339 -0.5570536217873269802 -0.57518351466263450966 -0.95238561839996760394 -0.64577263902558001973 -0.21466894837737657276 0.24991955858857078931 0.34540098201077451545 0.061705173728323056692 0.48173515805555366942 -0.17251658638969444293 0.42657771949356748653 -0.3102774862554941171 -0.35083814781678995809 0.12133655225494557883 -0.50528907390426236468 -0.5625442206866527739 0.074163242162886999775 0.50859670276647173104 0.37604695550732314402 -0.17671378707662702134 0.53402301778773608731 1.3081826628740349516 1.3894765286812191807;-0.31073314761006387563 -0.04710859266881472357 0.34874336480501921809 0.66705930380572819871 0.1128463477913152907 0.17786655265267806159 0.50103551875387242198 0.51606641086245708117 -0.13837943313610565066 -0.10402869310197630781 -0.19824124027428846606 -0.17823788591899383804 0.20578442972909960496 0.058498953302016598599 0.16035513589198005513 0.2028662935891890895 0.17382058361567198634 -0.020680700135745730406 -0.21927940614380045381 -0.36177887206883990734 -0.23007649903930330049 -0.0029351420098298885986 0.12590721718099284754 -0.41641450701558280212 -0.28592572479570788069 -0.14491361973728475454 -0.40113509316782136604 -0.31273933304912171494 -0.010974269030009708298 0.038875951144420030359 0.47765040242397938108 -0.1364580772146055665 -0.28177214040525433436 0.57899462933154743904 -0.11535948261184017505 0.00055858127674054958156 0.39279112021425049983 0.57120321749905444975 0.41135906629222268593 0.60687629341977522568 1.0201831507847565206 -0.4848032212604778679 -0.8887459472589201992 -1.0896246476874165143 -0.69911743099720036199 -0.51675561294334371176 -0.58766826751018619301 -0.091997863175494118404;-0.67697019172826355948 -0.20889047260056331501 -0.7150623407884013627 -0.32724872604735588677 -0.023352698835630163882 -0.45236724536706279798 0.089138329834707610844 -0.093579064995206379107 -0.18146558924703654059 0.11626812243628868726 -0.031539642156872271794 0.41481848734268028656 0.31163679871616212225 0.39794751222883290032 0.75612253033505827382 -0.016290543471079475119 0.58394400213203379035 -0.59249248516510488738 -0.66671383445993526173 0.088482169205034294501 -0.29032512021218043197 0.11103696766014602149 0.028678059472810712993 0.56690967759211829957 0.43173149686446049555 0.034214930360897115313 0.39257441646989760242 0.24771477568420680049 0.32480302322316867425 0.29771695018361693519 0.35118478527622620788 0.26342529467572051161 -0.24410369026699929584 -0.24804444474624101624 -0.39963517161346368001 0.19686949906598064097 -0.018590850113786906023 -0.060950508861367026781 -0.12144482506160306223 -0.57379470575028090895 -0.25013799454065022143 -1.1694818078310142972 -0.8381822864882410018 -0.17265875802988109311 0.09846424525298805297 0.56365563338338120491 0.83993681441494738582 -0.24836550312811506158;0.45785122252472498783 0.02937235267129626598 0.14223192206031826101 -0.41171766578035451367 0.45785510423222725018 0.82425550897358668134 0.49883665792165426955 0.2866297439952528725 0.51495712381347924502 -0.15499274635331311556 0.46937030721260486477 0.2158064983467873621 0.095511718670584139224 -0.033099172650492447723 0.4188748444125340864 0.34189603486392844411 -0.11143690074115944477 -0.82472644091150293377 -0.15968032616742686147 -0.33048987827201570244 0.11294059908570185102 -0.084865135323860030336 -0.35118461308298276613 -0.34407958168986224612 -0.35170038755618632242 -0.098834769115896975444 0.023013206127187827571 0.20528640034935946579 0.48543645874390706219 -0.64575994007523962459 -0.80921121967325992941 -0.82105799186549011104 -0.99264716904484395776 -0.54159857366586861005 -0.5899969108662316275 -0.13135835365141482201 0.14882822231904840882 0.061499787582838624789 0.43215800802267234637 0.44084914104195460638 0.10394150095796658717 0.25651939534403833676 -0.097955084482161169923 -0.0056814598139029457227 -0.39675955585687727734 -0.44771112999477619132 -0.48491146692064701629 -0.4702814065834656776;0.033110616000272402593 0.81729801493273845914 0.87787801331192771848 0.99173925877520829886 0.47322744660451299126 0.30962651464075746643 -0.46516600059158069724 0.26083092067077034981 0.034131371062804380379 -0.49183735091845820486 0.14218602632330054614 0.049247374082533830475 -0.21573572636999321928 0.48484943546118386415 0.96320563016180849036 0.79964594658637644375 0.29040520493437038674 0.48560117701376326327 0.48708254306883491669 0.39814438080823499888 0.23086646809712987882 0.37295008030808601829 -0.11431078160249141806 -0.016719282561983163371 -0.10803480491017862508 0.39312749500284982496 0.62850202745000427473 0.53084435124032147701 0.0042091546601774401659 -0.047551988054912015802 -0.2439199754714303503 -0.085852734310344722135 -0.038651678702270576837 -0.41445028429744884546 0.21469768274102146721 -0.056771906453436889184 0.031897255275543337505 0.46010621498837267485 0.25502299125617172715 -0.21129171366313501124 0.21232973512552158479 -0.54884615556197480224 -0.57914966997631012191 -0.17542394452121562454 -0.089903379249392942341 -0.00048323126784614173213 -0.19838945312407466059 -0.4957399416972119166;0.62368196673677289699 -0.053707445239736049947 -0.48797684140416325294 -0.25060444332754583385 -0.12738781114885314172 -0.50286632470638825687 -0.6075363871193724119 -0.35830044546855982501 -0.14812362415104204927 -0.26219598078845024469 -0.34313779030987079377 -0.42920308534419399082 -0.49945513071839503505 -0.46967420831819273186 -0.38919597097188679546 -0.48385362527508257724 -0.26301291197966403246 0.029508034148216573389 -0.29030893885900449503 -0.41328416683820035082 -0.69150579117765031967 -0.28588233770410453882 -0.6342582340761577786 0.41747219390166101505 0.37882008530358884935 0.91938011833527610861 0.17926147965234315307 0.31484291332484609649 0.034241957133284955939 -0.18023832122776470288 0.25932323710134497219 0.083254250731628245963 -0.22504857956774515504 0.44745347885675323951 -0.092871548556682767539 -0.1121200862957617006 -0.62620241157337563909 -0.085756916130617893979 0.091732070753153080456 -0.23550162825581594239 -0.41848944421062272969 -0.53146950061877074045 -0.80823275683711559569 -0.61875731546107226588 -0.34140867880881681229 0.28337334112467993386 0.55421671805049199655 -0.15536195875496638941;-2.2468758459174620334 -0.74253104437463646192 -0.11801397508338372366 0.38455252072531553864 0.88121771697160167225 1.2793717742184529396 0.85946262459674271916 0.13749002553513620106 -0.23219900563314510578 0.012375138289375239853 0.02661870014118294589 0.41428672965410806572 0.39075841007847494923 -0.17595516082727441498 0.12244401271568468303 0.6228689577757702267 0.1288902194148964786 0.0067538225753474429025 0.041536253380954651915 0.21251511164376551966 -0.054259986723081549131 -0.55573604087780692495 -0.58221385437402861651 -0.92630833767434872517 -0.6177320626800306691 -0.31493085657432318136 0.45310574111261547881 0.32240751233151998534 -0.17188769058222683195 0.18761263134887573578 0.162748642036886354 0.51530017764679281189 -0.050264309345030608323 -0.20456014006029205055 -0.24476009995516712081 -0.14029566545120389365 -0.12076600802688364222 0.53568406356919862077 1.0137470369463197351 1.1446183481798237747 0.58621909515019388071 0.16332692473404439304 0.054759387555916361201 0.0066268614237390104094 -0.35516532317654675444 -1.1608508709863170072 -1.3487002730298938147 -0.34534739066058256496;0.20405856143100459255 -0.21657277032329269595 0.34129370083954213566 0.1915365909866116878 -0.64734719548933050692 -0.26697392013815779421 0.078203992301612373916 0.5481872266658222026 0.50298660666537298169 0.1220991305611265898 -0.046544618727163158955 0.64691455091861027604 0.18680849018083481305 -0.98364610049614153997 -0.37705176483819391464 0.67308520757938428147 0.008941895459223810072 0.065889877402195942691 -0.45663864248453533978 -0.1280733746636225634 0.20819243989454122579 0.22866874980192947175 0.54553748446284133777 -1.1610921126804794046 -0.72865262868683200459 -0.15848466882048148352 0.9435467880711413402 0.68471810967903290468 0.12477288376455397678 -0.55742471933699977438 -0.8764272253148601699 0.051123176630746842986 0.83310280490506671836 0.40618942606737162837 -1.2108124521742522628 0.2213134812313927724 0.71417630696700473703 0.16534271128539396178 -0.044463282758566494146 0.22029960353809949214 0.099249800824456557713 -0.33680328575841905758 -0.21429284207100807169 -0.61184084936960836387 0.052191242697814596574 0.98389685616598143714 0.063003898065295313446 -0.061299930260549306826;0.44131875881569121445 -0.40493687228470620632 -0.19753098934635693329 -0.076663458868689887682 -0.6114541407346523183 -0.16536137867351266562 -0.018914898318032946634 0.57911526067787555405 0.064155879039674762465 0.83537373050029561927 0.51174709446489741183 0.38672087663305998451 0.033829802694318164558 0.13878172228430799007 -0.10119595901277449179 -0.43587895114036989686 0.023348016208788353876 -0.31727727600500260641 -0.4989087666555296896 -0.81985261817431409614 -0.64432966725875606695 0.5534586614146239647 1.1674737151078324882 0.99279498012881017832 0.6238236001186218127 -0.11041085631604324879 -0.44557507976890264878 -0.70165052762028679023 -0.35608561023423107583 -0.08718310483342495143 -0.13432034040472001779 0.15585481993489613828 0.2727835281767725939 0.43876498939892177864 0.27081498327981934349 0.40079084569616496569 -0.073126523831739814741 -0.029383294834966235815 0.091490793276900517217 -0.086406901603448285631 -0.23647765875447454564 -0.53129326744500426916 -0.59928059139891942664 -0.013636478496603383903 0.27479285816757964556 0.21582677631946889374 0.60288099472834066894 -0.097843073168539990148;0.35061499226210790514 0.055900771632057547067 -0.81585611286415138377 -0.39583646760895857541 0.0001570634881009396952 0.01075332912759976306 0.021828971103146035948 1.2378804912395520166 0.0064459254918886460528 0.7337490627593478143 0.87517310743783383042 0.0031425670238729511152 0.016989389610294582805 -0.27344015622227491047 -0.18489180844115968294 0.9688147414644501243 1.0172492588537505043 -0.099184428300406746182 -0.13820710944679415189 -0.1485421640409022026 -0.24622872108437821037 -0.51937851018152703109 0.45235455362610671459 0.28690377586604032256 0.1361307308175103703 -0.70376253244349118443 0.084372640752086544569 0.37120048241924658017 -0.41857270436740029451 0.3657731472734955247 -0.43276404974856291785 -0.8817924833348111946 -0.12920927293140010983 -1.1897777908449402862 -0.89957751168209421078 -0.3764598326679914897 0.078245349567963112802 -0.14775379120752676898 -0.49766876434848594801 -0.39625348913724667277 -0.41101269765766906827 -0.24491059087138120076 -0.47669110418391558159 -0.31034822995480310093 0.4317750904214462393 0.19766739458506910054 0.49431499429501496445 -0.10964727907156916753;-0.57672598263151553244 0.5127317257204903056 0.63837212431511758393 0.74702884937218438921 0.27358498770957473401 0.24605741420208587789 -0.089457196845285413822 -0.49626003662181283893 -0.39620403247505764366 -0.17492657258990645941 -0.33347108917561452124 -0.89814447662410157314 -0.56474330761695712422 0.062694603776045743082 0.14161196487831217983 0.60698883332909492339 0.48254555181425257127 0.019010389613331454134 -0.064521006038443531883 -0.38757234190995643042 -0.22208402963555623488 0.10818879834675101947 -0.39389544975882295752 -0.011067951240055252937 0.31444200545168360383 0.67773084210568879104 0.67222128242171108603 0.10521748002143045675 0.18024687220522878084 0.13332449424278369765 0.44995030247961265157 0.10210715444049371647 0.096920474608261308891 -0.13373760391528094482 -0.88887677551666910425 -0.3769887570147282263 -0.10349866198037566134 -0.25158826063842804066 0.31966706000907302299 0.11442460101318849275 0.15072670751223513075 -0.12164185974638778986 -0.089815869133966080851 -0.52083449647818591544 -0.41966204290025255208 -0.7736172805555751042 -0.80036922820921119204 -0.1660002308522162684;-0.71571733435612583385 -0.45461395095453421833 -0.16280920024241329891 -0.28245689271339924353 0.16446415722627855116 -0.31119093827457788848 0.12651024521396314615 -0.046588701601501178451 0.17739500738436847493 0.15257987778123405231 -0.0071318763619785396912 0.18529053692774744011 0.38912420406097492087 -0.035843016667688146204 -0.3080819447981389958 -0.35892573485526507726 0.31828384586674945966 0.011698509199553931703 0.16568127784019887061 0.029967234555001297236 0.23877996887535604675 -0.0017134686498034290558 -0.24625447015596732547 -0.46256668757395019709 -0.06226815959819655133 0.042843693713243848065 -0.25246317103154430894 0.44770390779717350593 0.39294892839482414848 0.39860707194001193665 0.25356088786504471511 -0.046013510688396812298 0.18278455929297340865 -0.068041516747462907344 0.15227728489731931494 0.23231719909926665246 0.34472516261700142381 0.77270192370185541986 0.7691299504017937716 0.41543043142624558328 0.60867718513288437965 -0.064053784984052841711 -0.43289735200595025333 -0.77596305375345886457 -0.37578734242679245892 -0.27780004315717066188 -0.85853075995109451313 -1.0119248306503889623;-0.92099119815933305766 0.20998577609728460991 0.7530644681579788946 0.58473524461021253451 0.2784051986639148879 0.25285953510987002613 -0.25919027618941165025 -0.5441140763033264216 -0.75326909192790347802 -0.41526268271433364188 -0.22726821847354114481 0.0024926314945027425 0.061204005300326741468 0.30144011106088269836 0.17686080907257037409 -0.33535272829259926697 -0.65237290205012121724 -0.054416275891310969537 -0.17877399735555135618 0.079219271905356034025 0.14386384910253277591 -0.011316272901969143955 0.087544166928007260964 0.33407594776068422204 0.23098957271617898135 0.1978861516590316727 0.02751590694961252026 0.028158460586716893559 0.072859998261097735917 0.20367019028826585658 -0.27578716490479765477 -0.12647092581110933041 0.079323818844612703494 0.32311688727651477482 0.065011462400840297482 -0.22514518599908761587 0.093587190943706169421 -0.015399260929750612989 -0.50884873004399466812 -0.14008567010394171182 -0.15371187152983104007 0.47540626290348964034 0.25130218006750137949 0.61733745068870760075 0.088094206417469622661 -0.097109079707563272787 -0.49591384081529554795 -1.117257147010214835;0.24875315041007545203 -0.5995778844378734096 -0.21208571075788834603 -0.20909783684656996217 -0.13320834540327536333 0.029404340458400214653 0.049970622032056336015 -0.18578580096808175459 -0.28142506131745836928 -0.011081184177630418186 -0.086914332306524483274 0.24652568802152627359 -0.03424325609943458526 -0.15184766348782335887 -0.2026206909302248893 -0.43921849577438415446 -0.58194534735647251988 -0.33377755664683911307 0.20745191925021150281 0.53173931657561768205 0.39735352335065582396 0.054973065059217174344 0.34086265244497115923 0.059562511532505732492 -0.47800714419766182628 -0.79324466251508207737 -0.13006671658140564474 0.014846462522222728109 -0.031033449561336086397 0.49985880890966061241 0.31264084831052374458 0.42315151224829761212 0.5371779879795505197 0.17555951313972054106 0.39203934212662189251 0.2511207312787729351 -0.0062782862642458006977 0.19737391441316579077 -0.45140491986956060577 -0.22531257996071732408 -0.31994118762343276563 -0.24091902657143357547 0.15320109487348707034 0.093735695736232305109 0.35304124671183811923 0.6084928027796668859 0.10583991389150725071 -0.72257923617861119503;-0.82258060975098945544 -0.36462993685800365595 -0.33751692813658062953 0.65617820353004951972 -0.22888124642378271378 0.29133513600704674662 0.40756098324846978809 -0.55339950357453926433 -0.14832933709832551994 -0.067759054044292887919 -0.0020671119670951781933 0.092202859247722715463 0.5243691683570356199 0.075282585816517089139 0.92556415088737908903 0.39889297406352342001 -1.0697168275704116436 -0.72300680195124344962 -0.96538607368589102187 -0.8907398913696358278 0.76009167757086271155 1.1875949351479713201 0.78790159461224773541 0.0073952625137414032541 -0.26810597475051201055 -0.55845125405828810461 -0.5407632225690804928 0.53722204148028995796 0.26127579858433802595 0.35835282905053111868 0.43068469707952899972 0.074018614181177083688 0.80961754243931194353 -0.14601661045665242922 -0.50900682594916279999 -0.6391356583433526195 0.063944444035959446815 -0.088133417056654367316 0.39498953067389641625 0.36334699669509396003 -0.57402884705104528784 -0.87966678015680099811 -0.40503413507187202569 0.16097579735731337713 0.0025657352861298918928 0.5725665888346783694 -0.06151531154481038044 -0.18614195285252524426;0.28634539576788342607 0.55014100537286958481 -0.37121629998014560314 -0.10343935534985602975 0.099958708232402673777 0.042570914163984965861 -0.55344361030109179289 -0.10191205061208102878 0.74103923065015619986 -0.021426967992851458922 0.70574738993322894132 0.96365448205483161814 0.68373871384829576492 -0.24935564523038092344 -0.26040570398732870716 0.34098876081715401298 0.58390732797905431362 0.60616194839871706534 0.07554282158563795091 0.16472545758162418505 -0.18387077444416882743 -0.36462943189628149732 -0.083157376064632831936 -0.67406172619033888349 -0.41284693461869603759 -0.0035277559926977508642 0.10922053502238053546 0.76970224605450787703 0.15494884117183432837 0.47881456452011394997 0.40134584583381083256 -0.089349879656700714747 -0.51419076965739718421 -0.81518697816405005785 -0.56140820512350808613 0.025590898732833620988 -0.55815964373200788184 -0.81215380129539105347 -0.43934888156566964668 -0.34230491430983406298 -0.40265906078839930338 -0.57640732832613938985 -0.59900892895968727014 0.093160812070108733884 -0.47138861284741606639 -0.019835875644894914588 0.45127367918753819032 1.355671681079024582;-0.72394368427781552455 0.34676969123706047338 0.65705868115487797709 -0.18238817999472564657 0.20818071093759635271 0.4919423786344394034 -0.23224952578800686642 -0.62811727872577705067 -0.10024978252101332532 -0.084099053668541659534 0.51067190278175433882 0.21170062276049639305 0.23696365425585150244 0.12034517404256064865 -0.020026929875409948262 -0.024587156436593361059 -0.69145619283949699696 0.12817840784855225045 0.34700912461762073447 1.0777199082741257818 0.4496028097061122164 -0.80199145551314388047 -0.24290952517744712758 -0.69300663584750543667 -0.63123004149801653639 0.18694543672249008814 0.10554863225175079022 -0.12259810258605863265 0.52589052456769103117 -0.12658836962583239205 1.1179035825871541654 0.057406504616338727143 -0.50430927331194330687 -1.1755394462608828032 -0.27089291872844289966 0.42389057322084650048 0.098043834200022550451 -0.24324730781121983725 0.17710094089119951533 -0.27854617074956439238 0.050949658862642993595 0.12929288657321946765 0.18220222007149955434 0.59300835112046723641 0.82153573050980366332 -0.44085785618438377842 -0.82413121394209298831 -1.3854351823325037341;0.5191299323960950618 0.65877784918998538721 0.065180625581736095775 -0.50758115361242028829 0.12566127246602937229 0.38498978201458528003 -0.50747509507939858597 -0.56532913091129188832 -0.21048428762969884076 -0.93150915185528337936 0.15943611385617867393 0.10984506422527995362 0.072080082122240443643 0.30323979892563135419 -0.1381624723254036291 -0.043879495836592868896 0.06427374338778218954 0.034755733642544611728 0.12436163670498004419 0.60975027980334606248 -0.2320428986580783115 -0.37799715732400696044 -0.29392264000568829596 -0.50406368995214223538 0.37366811446858044787 -0.22446518276801027958 0.13186224204247512515 0.057078832727122288948 0.51917829078175603552 -0.69009176957638129757 0.070350971240242754501 0.63378932175265423332 0.29936368531031432028 0.21886307041825375785 -0.3371703251344000396 -0.21527886796911666067 0.090259485245793510955 0.060418476823857723834 0.022442520223356236808 0.31363189623617776514 -0.64564032027189932617 0.049033021183260951104 -0.62647195423947188431 0.58792355776542726264 0.056547187394850942366 0.27178352785698223215 0.16316158033099176228 0.34778662780732783055;0.57305226545660947757 0.198950378675047862 0.90653788405204605017 0.98918190742328238052 0.30072466974347034085 0.32634356430899480461 0.23557411499244304554 0.22305194391970331602 0.18841147029705276883 0.0027902855767385909003 -0.26593647082978100205 -0.23915537334174896689 -0.29384079909671712016 0.40946842518476600503 1.0528869614917104602 0.68525817268579836128 0.22886932344070126666 0.23876967452868669284 -0.46609438216040433023 -0.03835801505930926808 -0.2160066720932470874 -0.087113974618330258792 -0.18743618675236689564 -0.31462384847954355527 0.7105540820809916891 0.22931342655161893185 -0.42041661971581206769 -0.2658168484870997994 0.36121671170675295759 -0.81612592368223380035 -0.80866907609237015375 -1.6317321214799598295 -0.24103269334058985418 -0.71789700153060231891 -0.19408481514251607614 -0.51475371664754043799 -0.25858364763929880814 0.8101940305112571572 -0.088690663795495935928 0.54214189984038752002 -0.048151307532390268118 0.41908873006298197339 0.31821874692433116394 -0.088927508659664561419 -0.31404860249400978756 -0.16485198416381199871 0.68979104636630350633 -1.1117239771793216985;-0.27069040897166801729 0.074053346731415226056 0.057187798991393326564 0.53078230052287356244 0.60658066291716694618 0.16692660095870556769 0.20610198972757154401 0.42269485120158967195 0.49352729772846648526 0.075676455975060591408 -0.11879186536851425726 0.38561244090426821662 0.29023914975843601027 -0.22049632629422413754 0.083281990305906883343 -0.08454174202403261229 -0.40900558159609878839 0.20282570422954024347 -0.38864973271694841506 -0.47220988076159020608 0.080472572814809253949 -0.10047753684989475798 0.25574255719810279341 0.070377997029550803942 0.40364350831888529125 0.46744664330453633561 0.2047762379638609076 0.21481632050014584645 0.16908460020702187343 0.037742172480627445008 0.41435031820295586957 0.25451987105285289736 0.50921948647874715199 -0.13763451198491244432 0.09076283420027507487 0.58931719740031085486 0.60516064434186034315 -0.040300542460245267207 -0.067279247979831008353 -0.11078142291096002015 0.29148235801527166977 0.04110923298133886683 0.34188187124157382035 0.034901272629832086336 0.31593577759582480713 -0.12897512039346128998 -0.086107378032851497607 -0.33561535226955296896;-0.92503309315477622032 0.060796427253690714376 -0.3864209711960269189 -0.73845260033106985276 -0.44460542683010789711 0.11942642517346195585 -0.38733034473566474443 -0.70527292036228739214 0.13700492030081592998 0.12408050769579970218 -0.20467062299680524595 0.5013999081013892356 0.4432973053134702246 0.31619117324315165751 0.74435557299167376399 0.47884608249300614213 -0.0031101439114347879944 0.11224976728003788207 0.1030589280583902867 0.72593132594415676895 0.65707022736189890644 0.75886065116423151444 -0.072850371081008349905 -0.25253627295734160096 -0.43575900374976350715 -0.0033960254025352030853 -0.3553741797588111373 0.053361437058728318494 0.25346284709727545659 -0.50590842292740567654 -0.28943451752300242141 -0.052320693238885898624 -0.096533451240511006231 0.39425619001663414487 0.099690334466165958505 -0.9397484273005092259 -0.64220072360876612194 0.30234895753654178474 -0.20079978813351639921 -0.36110055498836896026 0.28054976941741627261 -0.70062660200755166873 -0.21526005498824368756 -0.36103533756742434147 0.17328216538598462115 0.23827587179846060339 -0.10678025810791180739 -0.85143074759173953403;-0.052625591840901472795 0.024032680583690717996 0.35547237531475428529 -0.32236062363698336775 -0.55456921979358897445 -1.0089128517038505883 -0.34470211701609604349 -0.46588297133647021964 -0.35471438168830521365 0.028291580784585455832 0.069853245631094879053 0.56435646146784723687 0.97985184013845538775 0.66438417678456251902 0.239585568659809095 -0.064992802697574514337 -0.015047987262915306361 0.068422822515179004821 -0.38077128381932695556 -0.19018107191441824266 -0.013514742613627389947 0.097644352212532148361 -0.29546390414316725526 0.67586061421961007856 0.028793293414889304521 -0.26640096482829223046 -0.64620990208357831364 0.5283700993202148366 0.077641976208717072838 -0.55957037468430648186 -0.016756248472617325113 -0.3695106530237321496 -1.0363118823683052927 -0.77682691640296119839 -1.284765747674799119 -0.93722239547727859144 -0.31328008995784484281 0.1399367863391063338 0.68247508684312763183 0.36924085057311512026 0.3033857972775719225 -0.6534134883691992135 -0.086137520027124242494 0.0084724781042807076337 0.14232488483954419678 -0.034695813887880511128 0.45738514506849603514 1.1249291768795182112;-0.58002778741133675933 -0.016087551059691604372 -0.11950112170217440377 0.0756011791965762181 -0.36819857525644350549 -0.36133164729580341534 -0.053642501749814636147 -0.29389390709782203803 -0.27793074264856754141 -0.29481155233226918888 -0.82814846754418458552 -0.37846445916140203369 -0.72679098738526826118 -0.20203298367250255296 0.10791323781152510619 0.69320547213526673147 0.32106555276192655368 0.69405460591731449327 0.28497309956406874365 0.28810596431827184549 -0.071262879572449297494 0.0084615795926394066218 -0.086680118013813506339 -0.087454455323600063799 0.046272067328654895024 0.52957223580037005028 -0.17575967974809628136 0.041744810947895415187 -0.21898385029017530812 -0.1280427815118782009 0.11901338773908520796 0.63672453073406609647 0.46616324263719083332 0.41823632595324466976 -0.137744969416695201 -0.016434451755262619033 0.089296912960822399929 -0.17426153898251597885 -0.12140794172616270474 0.51119179213048637767 0.085794493234062838005 0.26798213016428573674 -0.034214139948465858987 -0.19983479912260326827 -0.29463736287192793251 0.313239181393074273 0.27596828524644229086 2.0373975607204450888;-0.39947116134278115585 0.28847516004998546846 0.35868903580846978052 0.5504805759788616859 -0.41577519929708811608 -0.84456679872886430971 -0.30906550547957811759 -0.39938283547781772143 0.10334438191494292603 -0.31270896078238175075 0.086188438574940323678 0.18130611518194375553 0.65808465957544381997 0.46440584421869579579 -0.16249634732377188362 -0.19290347627635720529 -0.18294282760300326074 -0.14180408632042998396 0.011168835594260391117 -0.12124342521747755175 -0.44569656879203362054 -0.12670076930276169547 -0.17153870044893559932 -0.038434471717307815142 -0.03096384874162595377 0.56164715216965321876 0.43645285105012471272 0.30998363693373154337 -0.2022641161665459375 -0.3911177433685364413 0.19084062503784651743 0.47661553988872434884 0.24049513517425652465 0.074285895736131146716 -0.021611536443389832429 0.19044337980665046461 0.37488613428763106761 0.33115387815307750774 0.12614426018205560087 -0.40036334760236902408 -0.28762751984653323056 0.3702344154507346552 0.16091135147915353043 0.23860813549308751425 -0.78568108644040357547 -0.42931252622565541088 -0.3824031336654615254 0.13701025003343855757;0.58535146357010636731 0.077907482525989404931 0.052665270051914341021 0.13191478912063631102 0.23460687535585342256 -0.077022325725499565796 -0.020899472002515344371 -0.3265610670499273227 0.053512416044043262242 0.13860883334410009637 -0.093526609677490407657 -0.74291453201529944472 0.17119077550110889385 0.20814498640869480428 -0.26874715027079842944 -0.44367620406222374463 -0.13429772553647642552 -0.29066354807465499821 -0.10670237632334540756 -0.52870696604080358316 -0.090272582263982451001 0.11471508296079009626 0.52283676882837004651 -0.0093117284880375704448 0.84096298157958127018 0.41235588718520699292 -0.29947947871448044044 -0.82991838525119820957 -0.5624021352419953379 -0.33489207477738142105 -0.71281877561861872739 0.22466779598081584868 0.15738472040452661238 -0.24292226683873324733 0.26920223853321295637 0.026570479706106524959 1.0503418478666688429 0.37084621931498706893 0.03318898302609137041 0.28440017756488128464 -0.15498827697124201164 -0.16835060427045306364 0.15884677238874120309 0.31347537908751754721 0.35385811870793693057 -0.2274315805501000709 -0.40325950778423530485 -0.20740375552333326081];

% Layer 2
b2 = 0.61475436199599287068;
LW2_1 = [1.1101187064656858894 -0.134657770558273715 -0.11288477626255523367 -0.19448104456747797308 0.46737263194468758876 0.46801299063117685062 0.33606743150380530283 -0.053607224911534710754 0.12162441097581572214 -0.6063430988328836202 -0.28293511532374499007 0.20089336587306461102 0.25481524671997912712 0.54368747291979890868 0.54374868169291279418 0.48800828372789806231 0.1710727186172260883 -0.060969891897752467869 -0.14063840885553977045 -0.10269652956365699081 -0.2479595665256235093 0.69078264888994833637 0.15070639451764603067 0.10420631188075615836 -0.18538956138658196915 0.35750408358841484491 -0.14902538897808015328 0.13100733728797120392 0.096512551809144836445 0.14182627183189994158 0.53846072467711625364 -0.39827625220138007656 0.13634978280551166008 -0.11454708436000257676 0.25131461879603811393 0.13512753944319136346 -0.72905553781293119808 0.49915687487217108576 -0.28346151798962715418 1.227044002339740647 0.39935288811853114632 -0.26129041108861494891 0.053436633321770371507 0.093341161863979282831 -0.09371079842468935106 0.52195629028425161167 -0.43790657547786093762 1.2348626363893029367];

% Output 1
y1_step1.ymin = -1;
y1_step1.gain = 0.0418585182084554;
y1_step1.xoffset = -11.03;

% ===== SIMULATION ========

% Format Input Arguments
isCellX = iscell(X);
if ~isCellX
    X = {X};
end

% Dimensions
TS = size(X,2); % timesteps
if ~isempty(X)
    Q = size(X{1},1); % samples/series
else
    Q = 0;
end

% Allocate Outputs
Y = cell(1,TS);

% Time loop
for ts=1:TS
    
    % Input 1
    X{1,ts} = X{1,ts}';
    Xp1 = mapminmax_apply(X{1,ts},x1_step1);
    
    % Layer 1
    a1 = tansig_apply(repmat(b1,1,Q) + IW1_1*Xp1);
    
    % Layer 2
    a2 = repmat(b2,1,Q) + LW2_1*a1;
    
    % Output 1
    Y{1,ts} = mapminmax_reverse(a2,y1_step1);
    Y{1,ts} = Y{1,ts}';
end

% Final Delay States
Xf = cell(1,0);
Af = cell(2,0);

% Format Output Arguments
if ~isCellX
    Y = cell2mat(Y);
end
end

% ===== MODULE FUNCTIONS ========

% Map Minimum and Maximum Input Processing Function
function y = mapminmax_apply(x,settings)
y = bsxfun(@minus,x,settings.xoffset);
y = bsxfun(@times,y,settings.gain);
y = bsxfun(@plus,y,settings.ymin);
end

% Sigmoid Symmetric Transfer Function
function a = tansig_apply(n,~)
a = 2 ./ (1 + exp(-2*n)) - 1;
end

% Map Minimum and Maximum Output Reverse-Processing Function
function x = mapminmax_reverse(y,settings)
x = bsxfun(@minus,y,settings.ymin);
x = bsxfun(@rdivide,x,settings.gain);
x = bsxfun(@plus,x,settings.xoffset);
end
