function [Y,Xf,Af] = TempFunction_ts2(X,Xi,~)
%MYNEURALNETWORKFUNCTION neural network simulation function.
%
% Generated by Neural Network Toolbox function genFunction, 06-Oct-2018 15:27:06.
%
% [Y,Xf,Af] = myNeuralNetworkFunction(X,Xi,~) takes these arguments:
%
%   X = 2xTS cell, 2 inputs over TS timesteps
%   Each X{1,ts} = 1xQ matrix, input #1 at timestep ts.
%   Each X{2,ts} = 1xQ matrix, input #2 at timestep ts.
%
%   Xi = 2x24 cell 2, initial 24 input delay states.
%   Each Xi{1,ts} = 1xQ matrix, initial states for input #1.
%   Each Xi{2,ts} = 1xQ matrix, initial states for input #2.
%
%   Ai = 2x0 cell 2, initial 24 layer delay states.
%   Each Ai{1,ts} = 48xQ matrix, initial states for layer #1.
%   Each Ai{2,ts} = 1xQ matrix, initial states for layer #2.
%
% and returns:
%   Y = 1xTS cell of 2 outputs over TS timesteps.
%   Each Y{1,ts} = 1xQ matrix, output #1 at timestep ts.
%
%   Xf = 2x24 cell 2, final 24 input delay states.
%   Each Xf{1,ts} = 1xQ matrix, final states for input #1.
%   Each Xf{2,ts} = 1xQ matrix, final states for input #2.
%
%   Af = 2x0 cell 2, final 0 layer delay states.
%   Each Af{1ts} = 48xQ matrix, final states for layer #1.
%   Each Af{2ts} = 1xQ matrix, final states for layer #2.
%
% where Q is number of samples (or series) and TS is the number of timesteps.

%#ok<*RPMT0>

% ===== NEURAL NETWORK CONSTANTS =====

% Input 1
x1_step1.xoffset = -11.03;
x1_step1.gain = 0.0418585182084554;
x1_step1.ymin = -1;

% Input 2
x2_step1.xoffset = -11.03;
x2_step1.gain = 0.0418585182084554;
x2_step1.ymin = -1;

% Layer 1
b1 = [1.488448017968980075;1.4407113461523433084;-1.1947785925732656853;1.184186660463362406;1.1408922749992507217;1.2609481428967519445;-0.98376002794946648677;1.1241687803556204006;-1.1605978199428150788;-1.0639094718269954676;0.8423547773428368135;-1.149889699174873714;0.45239121957922318051;-0.65506557346797478214;0.54164049088873977844;-0.8204249943398409517;-0.28019217734422524613;0.34186580391591603334;-0.29865497954923164725;0.48219595453312080746;-0.24712421325107680747;0.13674154375650199311;-0.043141249916656292107;-0.059776330608381798848;0.014252908691809906133;0.044487869417353401169;-0.0070163311882269060668;-0.24103110428983506863;-0.21289840057622475;0.25950954560536032556;-0.47546475545585842326;-0.5679827704716783332;-0.5193038933128636403;0.56623538365794334748;-0.76140486325805700751;0.73298353664400395235;-0.83248006415556441429;-0.99378104784792786752;1.0173545130693435468;0.78066350007983587034;-1.2024468030395887297;-0.748682372157166931;1.1846352712117003136;-1.2081621335974379594;-1.3611369663626697868;-1.4772228318048747919;1.3683038840574306416;-1.5111933654661859894];
IW1_1 = [-0.43010710696777942896 -0.18357730276030176375 0.32711639696438965519 0.30274033444857073594 0.24211173446947631405 -0.044482439230780830564 -0.1951431232613850264 0.22239228184936932209 -0.31032264999394354454 -0.0087808696758834795665 0.1169947395360657616 -0.20429911195544339653 0.117442402352757852 -0.14444977494108796057 0.24914018331162793296 0.20185191118587234027 0.26269484915974306016 0.24833970836883248468 0.023585826810106864243 -0.3995999418805842307 0.41145554262059547135 0.21978169820471227247 0.32701890123163684931 -0.047726742396128410406;-0.19087560723537888574 0.061346078233341115593 0.19713441339214127224 -0.012876656262020716101 0.024701496049040861519 0.12166433287828086474 0.037867348468259995342 -0.35971702583273501563 0.18610453967146989296 -0.19134388949628111654 0.26820171717003815637 -0.31998346620669892992 0.32179038469230775155 -0.11332854509841505664 0.27816170165471637565 0.070871423516244688723 -0.13348285816272906223 0.3718015007186651899 0.37299728867890319384 0.35051347554713524479 0.06720570684308255216 -0.26738026361945260723 0.36373160800148485183 0.080666623246592475405;-0.054627049071096667188 0.20707330766402409772 0.063946473325558403356 0.2859326454978741161 0.007794680415728449073 -0.16771980033366648555 -0.28331861507724742655 0.42076702645930852409 -0.13422988755792855664 0.30559431401802061856 -0.42913374298578421673 -0.0075952714531082703153 0.048854166691109493503 0.029475030212834908705 -0.12641885076504938423 -0.046324497958331080361 0.12553778855757469213 -0.040529150338088501537 -0.26781714733922362681 -0.15407871026364838851 0.02293935524519770397 -0.34076601141813273044 -0.0099580380375869290144 -0.0093403074704693951624;-0.2050901949954806458 0.27190753411151818986 0.0084789482226265179554 0.036145792083104893999 -0.2058084295362756222 0.05452934720847241179 -0.13528995809399071981 0.012531619225682098795 -0.35832375066121785467 -0.14521354315142273594 0.12106181376832873819 0.38584543573265583927 -0.065723003473247942896 0.35948886097192583877 0.19269387274872443183 -0.30682304578737179535 0.065658361152297159413 -0.0084687819941799673956 0.010494946511877075238 -0.030450973139178719867 -0.077877221552876532695 0.044724108694228353889 0.16692499705679397781 -0.039735835124342616664;0.091634605570128493945 -0.14943066356691087071 0.38498365745934126636 0.15166724394701150413 0.19220377566426538607 -0.12489466744094611383 0.044123802064095503372 0.26397081238729208641 0.08541080973262525633 0.031308868809454437621 0.023054745670877781899 -0.0785174027208432046 -0.10056062239558880012 -0.17797208227258182189 0.11053007164183283051 0.0010665513618488145844 -0.27950330507556281345 0.3208480457397439034 -0.1588966564826413963 0.13329070185280308958 0.19737558303892807632 0.10421730846213915489 0.11836266312366577891 -0.44904282142599438732;-0.11661850148767312352 -0.23742928527685297491 0.11646099003137568018 0.38901804754193702873 0.21468015749278937521 -0.087993820137375985957 0.004579749152895115985 -0.26277526665455042121 -0.2205900811703107034 -0.046361227753514880345 -0.097870440794249474736 0.47076887814645368424 -0.22340183117889542141 -0.29105586335144201238 -0.063821231562752891997 0.013076880716559553808 -0.25643861721858313141 0.019836856903074486652 0.17358375578704196562 -0.22609169737448381321 -0.18095480849461426098 0.13045430262110552233 0.16529760941499685445 0.059683749545898744093;0.28601204825710646595 0.10591827283744850718 0.040724847109532197331 0.39230580366592426866 0.12960947830738359099 -0.1633027844565124731 0.06189401045765316467 0.11898995530202972903 0.11476808666531568281 0.33154117365196056344 0.0098419793737865891858 0.22265673267536834068 -0.071795530721019532039 0.29962595267987290892 -0.26700456493995189389 -0.24160031169690157626 -0.44045164511646245353 0.1936685983992761928 -0.38577468260154018642 -0.16854924912200155984 -0.44721738910685404633 -0.20295375549266075899 0.030076007329710108262 0.3146820996170759388;-0.29223800947759043245 0.033531447044953296976 0.26565877666146242575 -0.14017663282393533208 -0.27084525286250765719 0.051800090556124868402 0.0049794840683995891112 -0.51320444564447864622 0.36711602586014363547 -0.37360898841859974118 0.41082625466402855618 0.2349027358491882489 0.31584057972659440594 -0.040233690089217399866 0.013492982573654612247 0.042405542472960564004 0.25793844603008148075 -0.40620688092875367747 -0.091017173994731970232 -0.25805473178228632847 0.17615959905919181816 -0.25082298526120222482 0.063441751576731333917 -0.059322336020738733464;0.062263380304536840304 0.16212930934874811295 -0.20723404331136460743 -0.27916049829859773679 -0.29562683399274974905 0.20891047277887908606 0.11533696079303720761 -0.16388161417802254993 0.26558370929522906456 -0.1300172128963995033 -0.1461264682917027824 0.2171330998495173692 0.49887439880991407692 -0.22262756087809223993 -0.13343784802007560564 -0.18066812335998266859 -0.14558695720086392567 -0.099976468175074439948 -0.19965451995876631885 -0.019060002972463453014 -0.28155995367945418906 -0.329377606978033588 0.27520457119369329257 0.014661261844497052234;0.058044237647980417849 0.099883047512255254685 0.18255405239904248793 0.16848172738530536874 0.38943007606527724196 -0.050632559549065390969 -0.18411024282763965854 -0.10490582988613925131 -0.28114292155982684163 -0.32290506344748565182 -0.2709553599406317459 0.077495825567649917476 0.016564189530707193465 0.12710289802259897018 0.15565674797870293622 0.10806169863289531718 0.05158476855571203501 -0.24400562228509509177 -0.23593678873473711288 0.040142934050520585887 0.20871841673244329041 0.038629031558895729481 -0.10975618610265215624 -0.12357515521459729035;-0.01932916706202232604 0.34583247291327806616 -0.32397768985859654034 0.13796537050893942222 0.011055852116445042538 -0.042379651587687854064 0.046257904661275911495 -0.1706003328417392273 -0.10004532391850486095 -0.2949823139694676688 0.11537412434203320188 -0.064408342623160891316 0.55038979073647653628 0.24108474062681778394 -0.25364044747649155953 -0.25545698014544504506 0.066308781266388436282 0.037693932517973191554 -0.3812500954650421825 0.12275714207326086924 0.24374043344135487565 -0.033756846768135367887 -0.15402360182337895833 0.13950231017685338353;0.30521983393125812212 0.3805008759590080003 0.16721633795975957004 -0.22459533605470077822 0.061369789426342087613 -0.24256528064663573918 -0.33966351803911981611 0.15230287148761117999 0.33653266112136104304 -0.21669596546406322268 -0.07448218563734598785 -0.026609137652882544622 -0.26364762699445798422 -0.051896553125240212079 0.061515328509508124255 -0.15675460685030886965 0.015961520521999325584 0.1949497233074677649 -0.052518412986366905248 0.023514184701208747791 -0.18745926625492870254 -0.010749761819285663655 0.18829153604678203204 0.31617843917280530341;-0.21068622660044469819 -0.17582801194596200944 -0.18655096728918332816 0.035426008952657787876 0.028435617148157447953 0.079455638667916397844 -0.069364607079439949411 0.20534206506793137303 -0.077635449805946554758 -0.3298361318928380026 -0.090934067975666901806 0.0093531121906350270928 0.28674132306255956104 0.36268533972890143469 -0.16015872474529282976 -0.29249632978625517143 0.28053329691232370413 -0.052558122733897170986 0.13804367842118803189 0.16422424618648162609 -0.16325452981774607464 0.072174280056425343943 0.32090014295523849874 -0.056905640773175704406;0.22998475492232134387 0.21514956472715099367 0.18072989116080825922 0.16449136044538870127 -0.20366596673175874077 -0.22510534204388835122 0.08355162947648624161 0.2014986413088189765 0.32945462395813784884 0.02632699499130385784 -0.14665878623615344334 -0.23773515273789252999 -0.082700611370046750448 0.2068099282229316771 -0.26265104099017000383 -0.1871466814649410948 -0.21948707835240446884 -0.0098922820873010366971 -0.0011405233416673038818 -0.28627970250686574083 -0.11142416853880958427 -0.046867721355275705764 0.16339436262881831818 -0.33242884266850319941;-0.077189600338100294863 -0.11543274982221755909 -0.43202607613793192476 0.28038670608118382299 -0.44572385892966137622 0.27331881462428464502 -0.097053664171463535637 0.28703328196522143179 0.026911913529044678706 -0.42174702931400948058 0.14166488689707260051 -0.29990873405816220743 0.29381288731397964265 0.20815031539098646785 0.053487743375514693045 -0.1241831529338971174 0.22228166104062552222 0.086520062180251239292 0.28993748551025122495 0.28747612133712385774 0.22237102637806202554 -0.0013447299736549346919 0.13328797595993618907 -0.24384200976745756817;0.039129890689523078029 -0.31491847657955096551 0.21040834587023285462 -0.086905614123438598706 -0.015687939428885286364 -0.083322951322749680414 -0.050268300862381265492 0.2590903007128985136 -0.27674498963897370407 -0.35969668259285253464 -0.04042733132547565722 0.39389164112526320327 0.0046100245533415365462 0.2936344190566949619 -0.12888461165952680432 -0.15767292885172309869 0.054473251770010867878 -0.056368898771830662497 -0.32465224904624934155 0.19056078820018493292 0.061469639720451656195 0.13059598130803218297 -0.091194631434882794663 0.38986592058179131426;0.091884624938183015463 0.12781405793172093133 0.16072303966920173379 0.10556035700444582615 0.15683595474954956095 -0.21870778124271919585 0.10590993120944384998 -0.023531773379124553552 0.13157338401692175722 -0.13564764481677754615 -0.22727165345920724571 -0.14121024363545808811 0.1686255455767992073 0.097329213514301002319 -0.26926609648421701015 0.15258135915952375505 -0.077493818181315954341 0.093814508411758715245 -0.23260498103189164443 -0.058803991279898951139 0.24083896254038900109 -0.48012083562375051926 -0.35899873376189289642 0.38816855175118480936;-0.10668184991227451508 0.13064719876936853327 -0.40194653901845545096 0.19256018293018004051 0.11228124404543407544 0.47428508352011256033 -0.32152590948171083651 -0.11086428257330752101 -0.012132050345199905245 0.0092001373508082528313 0.3635777545255721166 -0.087810713219594840884 -0.034613636818528456529 -0.33449238320550123138 -0.13932157654397658852 -0.011061448828392557442 -0.01009286938965586744 -0.10528985618943945135 0.19359291737418993229 -0.27859222646397030498 0.37484900395923681504 -0.11045020623443035923 -0.25953899628181825721 -0.1424992285423437588;0.15317770993235765853 0.062362016979383941284 -0.27041680410386359501 0.21414060305098858716 -0.075178701103091702396 -0.43957823266773038418 0.22410099522884546763 0.16545342204729354685 -0.29723111495942555749 0.082061862222085502072 0.21819015864147869865 -0.069328827352741109746 0.080843119510620231605 -0.43437815270357921227 0.4076045455125488215 0.19189154102556152393 -0.1778404250990805735 -0.18505271821791419162 -0.046684068999608717421 -0.20652056702988560999 0.044825564860642569398 0.074552569753212477588 -0.25332180277061805418 0.20360431662214284465;0.0075282642764512401612 -0.12673551103035529675 -0.19403732491364775181 0.25890362650031067959 -0.0033321401885894343618 -0.39682120873407100703 -0.29702948982161364588 -0.091559948228902107714 0.032269281553849206434 0.10183054973891254857 -0.035419487912774778871 -0.1963323712974617552 0.29990762782734170511 -0.022713234952316883886 0.23577474870312165045 -0.031846673193462342322 -0.025855121177410525513 0.19382581932184569928 0.35179056195293773035 0.33153103281049117745 -0.0099004065457956019064 0.010315785138457014142 -0.21940229689334150853 0.3245450173138657024;0.035315439737134322884 -0.10471064902548515851 -0.10230600395823974402 -0.06622980909296134755 -0.033046800571928804102 0.080814659989372886195 -0.088702308755438552534 0.22025540882415214905 0.081482897029375625508 0.048863262223927103611 0.18463161330673988347 -0.22794886396805907891 -0.31852287987348987253 -0.13055223002745075522 0.41406224320462581279 -0.074983831124324024087 0.0082911726574019673636 0.057240851784236913835 -0.25956535648227180291 -0.13429032893826853279 -0.26410593894206813026 0.066611206441013648405 -0.30287882718606479182 -0.0077350582252779919584;0.023057652059542715905 -0.2004215106329286511 -0.3011493831040910063 -0.43724941736822398042 0.28457860029931836277 0.057726034250119462321 -0.2193569314982258267 0.11526228968851034984 0.054885600329642847406 0.16352695380354642651 0.43448754837165609599 -0.023426439117912773585 -0.10654880680971989815 0.20845786930286477889 0.12950925492413339901 -0.14675520170754813298 0.23524100478511641987 -0.29391907817677048742 0.20482671689445591801 0.079876040176586504682 0.061572442983156644436 -0.21665824935241051463 -0.30461031629696233569 -0.17172446502964708315;-0.16771451518426960803 -0.22797696414737186887 -0.14908796957622011403 0.054721654967260384417 0.34844261429603684554 -0.14996274298351133791 -0.0075346023531808192786 0.37803693258516429809 0.11330134651474357832 0.14886204384113194132 -0.40177993586367771739 -0.48061197003978439746 -0.1062737833514478536 -0.0077672839820410455314 0.0150012514929397274 0.39688116908750459277 0.1987749771473208138 0.19345594389337555929 0.053123939577063204742 -0.21163679946056168646 0.056194440096480696711 -0.047614308438505226206 -0.17949964890897682213 0.021450304307487389616;-0.30437676176291628138 0.55750999721806604459 -0.072514171452169387533 0.041840241586657306305 0.15707162360621892971 -0.11058784516654393548 0.28046824024942695885 -0.036867543723066761863 0.11896036193670123104 -0.2202947546504818721 0.32293362211191201094 -0.41001772151981563663 -0.046123191780914632454 -0.030712815399146733975 -0.28945380913280666091 0.43111315946299649804 0.012904201128293312298 -0.28082512169944090497 -0.0072338685470306664932 -0.41710256906636555829 -0.13160378130815891806 -0.034831960022705277247 -0.054382699968592136675 0.237636789662182768;0.38130497715061478781 -0.22516415890721358517 0.15052244849492579792 -0.029388253790269533439 0.10626504002977538166 0.083324957748255906731 -0.021181353817235550052 0.0044533163352703051402 -0.062905983511883048487 0.32520628753582653259 -0.28189101536568439421 -0.23500491033688816755 0.025638924058267613393 -0.3433655559392302381 0.27273576352423389846 -0.16767517685814331552 -0.42708482929393798422 0.04215393480162833717 -0.00061786882749939337628 -0.15544684391558746817 0.060237114848387042498 0.22383765814547940121 -0.052650727405978647866 0.45735211366198930127;-0.33638350154036245065 -0.074908266954541433136 -0.035674993216421146958 -0.038228393328920168281 0.079719493476105018903 0.28908469424440752515 -0.20470373669472086142 -0.17474524763378576631 0.16571662928819683169 0.0011882515985975714446 -0.13195006193619085444 -0.22882627427455753955 0.27321707385127008694 -0.11278183874382467777 -0.16838452791660876717 -0.034775132736275769785 -0.15055193736173261287 0.091198666875824244138 0.072706542454699152334 -0.19553162276616653514 -0.31828613372836211948 0.52044037296842782236 0.42065466189566713684 -0.17342210677195210589;0.31482964381346950633 -0.23371953860524380397 -0.17714201504984602997 0.12999003394079672313 -0.13145104577004487756 0.33519322486292407737 -0.063771821289857269499 -0.36103312189679803712 -0.034647144446883992863 0.27051105760780858045 -0.11531396807446822605 -0.033440375172541655924 0.066405260441963626095 -0.024875546614620311359 -0.051408722679535306943 0.21614103390297040308 -0.15772623362888682497 -0.40988130623664859042 -0.10910730627218229172 -0.35103637898040185306 0.12140280230780653437 -0.042948838693858515381 0.12166995712028402798 -0.34279997737775164124;-0.40496597257716715479 0.23997204768544894149 -0.070191706352560195858 0.24960649220809028037 -0.26200203202376470824 0.10755154830128423049 0.27856680378733073011 -0.26262322071425875381 -0.18577909426328489961 0.01006498141997583945 0.32272040769845333763 -0.030483389065618846786 -0.095434057700729393869 -0.12247473553629964482 -0.094058662621330987874 -0.11945464647449541284 -0.12130728045441674379 0.30979379159468889426 -0.086327085955600263434 -0.10998332537088688354 -0.011443690518234158129 0.32017930401380439998 -0.26396216828206919836 -0.044981833148469055339;-0.10560441330030939655 -0.29823477185488089791 0.11901932080575042261 -0.053085582028183628256 0.19685021632771648736 -0.14464863980533917975 -0.37095844397999899744 0.039027013441220309575 -0.28012769968611794802 -0.076795279979761862932 0.22794035565497680618 -0.039159604628400061788 0.021585191306406195655 0.04469675229017436302 0.52532623048745874517 0.043048026579221555787 0.21228774196131047769 0.10149219012770030468 -0.093259079003362971294 -0.26191473648801866236 -0.4497120992887745361 -0.13385711262076940842 -0.016854588194509675936 0.11219435874305458412;0.044928670663239363148 -0.000468777793473267642 0.023961013290767024797 0.37450228589279249691 0.29259942463791976941 -0.13291646615039526269 -0.1665048109658713027 0.020368205272233676911 -0.24495921947786908346 -0.097518300682145592218 0.045990950110417830321 -0.0096743414247327901012 0.17723699121768582421 0.32462199836532440456 -0.10785519551071348632 0.3103326127423093328 -0.25866345362708070832 -0.11237469582492944087 -0.29577236973085646587 -0.24361695163042637602 -0.10889256160222973713 0.19118979398031524242 -0.013432023775248567998 -0.094966955243197190284;-0.41440327195115245207 -0.29975737159284737698 0.21938188303589467587 -0.14275079794290795876 -0.041370855826156655022 -0.28618616859955520182 -0.3827088766661227992 -0.20809157301734335088 0.46962207114874426894 -0.07351546091131412608 -0.12869253242273478999 -0.1528650089489971553 0.37869883463864967288 -0.084141891625092293805 0.18919354141005220726 0.052932752590971368645 -0.050383112019294490347 0.042653802551436810486 0.014685111673903778959 0.19068762717141785057 0.10047246863420317142 -0.059370216226877201016 0.34873396538138828893 -0.32336050598741322704;-0.34626602922566668274 -0.35449866923547396214 0.087792159361727462041 0.094081071977388811001 -0.21908421660042146084 0.074940627437877715966 0.17954939517496196211 0.046053477421931256208 0.29174102068729235171 0.10159265602416547858 -0.20002231608792928053 0.1826684353465941324 -0.27303255055129183049 0.26592673271986588812 -0.3843581237523799321 0.11687578558408626139 -0.26615205716165218908 0.062731107797692420291 -0.43474032089964909087 0.42752398605804720066 -0.045105728467328916331 -0.165079584264069823 -0.10737572962614422289 0.020043688464400289534;-0.13706650945894341409 -0.1257733678375741182 0.23377444670085578693 0.053708699052098400617 -0.29843641702755296929 0.37868782320996829949 0.00052087803886430696435 0.030881116147098847113 0.29000297999399893278 0.030630344435806280273 -0.15181835904772242318 -0.48377954951060153643 0.24832512971371431543 -0.10540389738380218088 0.08970048149508932922 -0.25097788830861089693 -0.16827523546878997429 -0.32401180780567756523 0.20665397241954044927 -0.34787984614103800718 0.13644745213480519164 0.26553179159615403204 -0.038068494142981461337 0.17420342558425397361;0.059271267247970368941 0.11856120173191211919 0.12630478071841910737 0.11535573049761689568 -0.1414331531604157699 0.13417148539889744985 -0.010061600367898956496 0.12557711968986898232 0.054323274701655911711 -0.18413052396458839954 -0.13339410324863132384 -0.0050500934167691481289 0.02093778749325974145 -0.35235698376577612168 -0.021516883535322228055 0.18556092809953766976 -0.0025634650760674947655 -0.0042018538744336437346 0.11088596560657446033 0.21519759679888011972 -0.23088413900563647951 -0.2006094091473158425 0.10126299565112661938 0.054524334289561091071;-0.29552275768756858243 -0.39439198918775880687 0.31153163245455717245 -0.029276364446720382073 -0.26992165050078603672 -0.040426774576377139114 0.015163007227546545022 0.18828057638392664552 0.18574149635548681259 0.21171581573509801188 -0.11167642753015791235 0.045976912874253185459 -0.097025627432827471486 -0.19687279425284570644 -0.018212444934120566864 -0.080361525848851103615 0.13083767748195909708 0.25647696725331720069 -0.066505579760668620537 0.17818697171055178363 -0.29908350182071480328 -0.075841744165046173776 0.016354764763939683148 -0.092618450433506471775;-0.061799906761003435551 -0.33346056190623857285 -0.14478012390772029838 -0.15046574805501672367 -0.20393785877985956545 0.016602697318072068278 -0.018409860261559718442 -0.21635341325479981456 0.22965802842063043343 0.33340904929362963349 0.57653100645717414441 0.14003519077667916926 -0.37292097767885856729 -0.010489365377076401847 -0.07634261824452838463 0.19580528363977989237 0.27697629017008612573 0.1079681136685040066 0.29589011397193826225 -0.073812713352438719117 -0.010210003491957006863 -0.060958615553844554269 0.11065603002131128851 -0.10636504168988235308;-0.09476037878845344764 0.3800301850212764454 0.38060329893728145345 -0.15594701823684878339 -0.1146133379291364579 -0.094125446425679479279 0.26665201570534824427 -0.24743834943321627029 0.24044122678757345879 0.052044030418686271222 -0.045511806642409398382 0.25810576321454736792 0.10806720001402232711 0.16328411524714442349 0.012429756628481050326 0.37424034199913547294 0.13854814994852346355 0.28025654337796024329 0.28402781093223022912 0.23200959515528998822 0.13000625925913378289 0.39936336137813516212 0.30618118797239946005 -0.085332546282817806071;-0.35715906430265270677 0.17237345619528282592 -0.22647482594977358383 0.23928792066527188043 -0.1879141218738664687 0.072727761314408070903 0.28330842263907812795 -0.042435641261213470632 -0.0061410909828664731955 -0.15471310128121842919 0.39484210597804930698 0.0079032065649748909492 0.35235681036787486198 -0.14017840092230673954 0.064096604687178634907 0.32122885683282276226 -0.067982643292038305582 0.025674019402585571831 0.31330046693376711886 0.30978562435328921287 -0.059073584996322495155 -0.14946784983328387231 0.31179393476647543348 0.032492427868433711169;0.039304146001039125258 0.031906190987396901293 0.38480514671503585067 -0.16466116227712435105 0.40664532256771540597 -0.075939808756184876137 0.20440930233909507252 -0.5467515934327943361 0.18461738323512696947 -0.26367668108835268237 0.31638347880360156994 -0.31940974555294748827 -0.15187584807880089022 -0.29489229736446997965 -0.23660397307607675121 -0.045954836225870036859 0.26606574194565857372 -0.17833368936641666447 0.015127317996590262938 0.25967155701792266065 0.24603535081139030205 -0.28996165015470842796 0.12176508388828989615 -0.12567223062554150337;0.09061794077546643511 -0.28828929222046423275 0.079172527114433038919 0.50944366593193601833 0.38328721990490194349 -0.17905973000310779208 0.24808343731774681884 -0.024365875673506492277 -0.3491147387228912824 0.069541327917313919271 -0.099949970745407193395 0.18216983871380987292 0.24159497874933383299 0.20779521666174846639 0.25231184655028215946 0.052310832420509954799 -0.048154171486135551039 -0.22031479730194514222 -0.0035038988754960264521 -0.17895139838226334361 -0.3377838683225093952 0.42359788976363388358 -0.10941158617755629423 0.035741918974118977448;0.0071122700718445220486 -0.19346736098506345236 -0.54699483704401496986 0.15501012696880997477 -0.42879761311209008134 -0.04278546059378021682 -0.0029398376685087373485 -0.2862431964286160091 0.43705328298683782107 -0.25022968813083451556 0.12666876971574456134 0.17941849761755371273 -0.040605459743640950898 -0.018054927747487674317 0.17451360718526523486 -0.1961055933870473611 0.31053653776131950881 -0.22494688021703768133 -0.1196845763763389886 -0.045389942212484650497 -0.0031283905895211905346 0.27001026055541527127 -0.3332386898310742418 -0.35234060325044325168;-0.073696122053782842087 0.02809762897091034467 0.17411880974681037682 0.12281856575358315875 -0.0068161354613688147561 -0.31509733401828637911 0.19553594442015007071 0.27507811757217903725 0.096905385529246990117 -0.082743011400545365963 0.094594130371143586578 0.2594427540348419603 0.17974467182649375707 0.053900931808015008218 -0.20052996141477225089 0.011566786111065785816 0.09950158005240124226 -0.15359974687181029984 -0.14440294564298916669 0.075784177382113959709 0.23378267298680757702 -0.34193230505074512227 0.15424943416222988701 -0.13915562704828537965;0.2351482029656626338 -0.22796485028433155495 -0.3520161649723794195 0.1584872305722450081 0.32051515693715865174 -0.093424857373729186527 -0.046434273217917480803 -0.38538200001162159491 -0.20435181101739419152 -0.053047483647666218709 0.3100333862136789298 -0.23410709280277464117 -0.31256850474922553973 0.021830380888527095573 0.097608224324331041566 -0.2463301238209318067 0.22757533544181551832 0.10178615825867487477 -0.265667848698657727 -0.080360244867152499926 -0.16510570759724085832 -0.27849366369966821466 0.019433877457441781078 0.19548696086420161433;0.060685468372363694789 0.26465034719831803667 -0.16227199099108813307 -0.32128579332463208518 -0.22888014375333790018 -0.34523693653377163226 0.13424452560625124709 -0.45837524174981336689 -0.096950395789719048811 0.33068308146292180183 0.16765472244701154492 -0.17395898173140292298 -0.13237667476607059558 0.048748335187745066299 -0.22845761892287677619 0.2478206582481269904 0.21491226389068535108 0.35671885917711382286 0.032800888874821652885 -0.068158384602728258606 -0.14655851406558687011 -0.23100444430048761024 0.43632083134860949469 -0.29434974310467398873;-0.2080218051543800406 0.15597446050489838232 -0.099013744840236492251 -0.15583211543776950836 -0.085820179931158604991 -0.095672127557381692053 0.0080141993133926343884 -0.20619970108012050658 0.17054090180043446345 0.15953707980552978007 0.25313332232416968504 0.11466513443810399941 -0.23857997412345993693 0.5014509015885442178 -0.074731996330940159146 -0.045270218858305733001 -0.066886077975514476868 0.025814644136598025731 -0.071262222936802482876 0.23668180333395519299 -0.057376854210341075857 0.72806951521749352363 -0.49926453292831957098 -0.13901408012854615803;-0.24236503676134057983 0.15584359227615202093 -0.38689901268218124253 0.18507261843892522379 -0.09482412011116662931 -0.27442463407771022776 -0.23815208561714948376 0.0091990628046205794033 -0.31049297693031219225 -0.28812120373563343545 0.06012785482470410503 -0.28736729430238083793 0.39820218573501664494 0.36252642553450825647 0.014031442036770475426 0.043780902938990194639 -0.03145261107007934348 0.11538756492348543892 -0.14116311800688136069 -0.20724117403524330849 -0.085200867557726989165 0.30161430170304504017 0.39266260810644521007 0.16618530625661556699;-0.23300330017626119661 0.15387738834137248967 0.021370501587903819457 0.010694803592809824788 0.16107195507984514715 0.2788423815204488232 -0.23568656440080065773 -0.28915726860181434343 0.12797991675675310375 0.23006073523046716156 -0.3083884512849753845 -0.058695187716157212754 -0.22116099340757053304 0.37212580829945285377 0.18265326590159342013 -0.050525770373894093868 0.20529996648284370986 0.20340825077602825433 0.18118192956506581903 0.24487113475371777294 0.15964307024887494646 -0.2763070986946767893 -0.063011443589828811107 0.08248758246362825064;0.0027495074729602412764 0.30080825618475248717 -0.1391448516335822283 -0.057249529353554387545 0.075537701356238565187 -0.15448710148105837536 -0.4612219994550977864 -0.32801850849032015978 0.21817082297190840134 0.13310461598054224019 0.22849890604175299158 -0.21574202773233502883 0.34228453874320602379 -0.19943939568427676567 -0.13816228363013205449 0.12142169550508048748 0.36620243483037573373 -0.12806085779827458548 0.078775007057057575 0.31445528424554708424 0.33188524185850704074 0.26527856595367893533 0.4114587604880495797 0.23934292161462017434];
IW1_2 = [-0.37694868941514986238 0.14340306937637314899 0.13097793749397804164 0.15735496634100695768 0.40906358791462527069 -0.011957377205828590219 0.21812308635586089012 -0.29985532479498649971 -0.14891242099741219818 0.12640541787497988624 -0.14123547251096285615 -0.036182641663434912671 0.15269691050347361516 0.15176176087398890457 -0.35077304557965466314 0.28855347194851471704 0.14394799031522564903 -0.33432250530294532753 0.18562323908302613695 -0.16507444974539930982 0.2124403365889429296 -0.016750345287246184989 -0.13974673551888808221 -0.14824898336017522382;0.31953441337309801407 0.2103217566149635509 0.0859486896765484093 -0.027601050872869500874 0.24475277926495053737 -0.21939375064279434402 0.32407621070458952905 0.22888132724513088334 -0.32032666382262325877 0.26046008051052932375 -0.058842497511028303558 -0.24659422432090205568 -0.26025284324895320287 0.099351217209577305511 -0.090669432893484239178 0.21594531007183687121 -0.25209207195244470734 0.25461955892361537446 -0.16361600159506078933 0.15637172273376487297 -0.14489900991195650559 -0.041278468156963225855 -0.013578403144753517506 -0.12763642272905803554;0.092039710507232197489 0.073254546683145918551 0.1600095548588011396 -0.12070459264575394975 -0.05255883722181491774 -0.18698721166694884377 -0.29412300534889662673 -0.19330893722871972384 0.007360660823699036702 -0.26882603193802823149 -0.043149359493255844133 -0.17691076428304453039 -0.28576931647683440074 0.35388172724553357273 -0.026171623629424135837 0.25291242051181395123 -0.11088556018514104939 -0.027609533006271478467 -0.0025950065341962622739 -0.034846641481691469078 -0.33061840930689634366 -0.20645979364096131436 -0.34404919615226126073 0.21433647559086119183;0.40988664388708556663 -0.40902155168420017972 -0.21804338803943637548 0.2284965832239620187 0.059266701530734697267 -0.19911739872019720843 0.24789790089798327544 -0.24689626039042364414 -0.30114826508754272139 -0.099782255608606151842 0.092279106420347020712 -0.071874148718339317399 -0.30199926540864918678 -0.0027945530132052350501 -0.36444886084602107212 0.0012700623696616933703 -0.1990743784914883463 -0.18862762983293202002 -0.014049794521012171772 -0.28555023502387533174 -0.12458244739515587918 -0.26351073777962985556 0.24987374271919776669 -0.14353596549893316014;-0.014730154537816984167 -0.27708197554922020522 0.32901301080059658366 -0.089502977949994094731 -0.50787076715636980673 0.096022715362186344956 -0.077116175732148670163 -0.25005047185690859601 0.05722121802002766433 0.033938034950217535468 0.18801479111337238148 0.45795219325795138987 -0.0048817643856008431646 0.11569589149118721105 -0.14986393827062044481 -0.030594934814185986705 0.29867448976790067494 -0.3988338804066478005 0.4087137926606860816 0.18162395107429668561 -0.10994857339601017687 -0.26532327386749093856 -0.20162147302330277188 -0.36083298157621712665;-0.17356923211610536528 -0.10028733290606266226 -0.070580898498457944612 0.15376921234050866527 -0.32015802935109782812 -0.060344180317593087981 0.17410170310607625543 0.075097856869298484916 0.02513462955596501569 -0.21966907643876601441 -0.13283943271275056031 0.34167028996758713744 -0.22899326708506895223 -0.24951780806633391818 -0.091597069128929772819 0.035356540619405039949 0.25317563876528775824 -0.19347236388532187967 -0.23574529262264132257 0.24514199102238495853 -0.12687195106221640928 0.35988650380338471635 0.19880359158375565665 -0.13623541333387031993;-0.20374395283004834156 -0.20591761420738058375 -0.0027723589684115392678 0.064429186831855472795 0.32196566920321206817 0.18073631019369565398 0.45631292799148032158 0.0040527400764101030595 0.19867367908420671685 -0.29866208552093026496 0.096725988987555272525 0.1790197433736311905 0.024230268277197226229 0.43143605264946927047 -0.32346022641835864286 -0.12187847577817276234 0.12467734300875622788 -0.096865325439623686798 -0.14730782734079375662 0.14117852047898349355 -0.47541117189308951252 -0.14654594224316691564 -0.24655826689127244289 -0.066591784203605286496;-0.13479912661458659517 -0.42100121819708880011 -0.024664904671961081911 -0.44535418077225685796 0.3495795623531959273 -0.16128245118376757783 0.17090608986271824121 0.066140678524442109154 0.1540625082563771564 0.090614372463887704612 0.23918754813551987293 0.13823692334451082031 -0.18133648555622602916 0.0401018275259437465 -0.17778944254582285112 0.41300949112419282905 -0.057897390853642503872 0.070156921588742246487 -0.041191789367158365698 -0.12395511772075532009 0.13963511193529754006 -0.34756216442677273504 -0.066580608485424394583 0.17590564168411926271;-0.50118472486849974246 0.074254471192803331303 0.10902052706075500421 -0.071773646083328632161 -0.22156932872964263392 -0.38705509802613430326 0.16148349486328245073 0.13077217356738987664 0.057728836955516137086 -0.051916730928561236058 -0.00062509761877841026056 0.12621638944288743334 0.43549557181429943142 -0.34924778103883258318 0.18222149596449543907 -0.16965806449681164469 -0.10619503126499948986 0.086508956960865246444 -0.48212629817599439441 -0.055549691635238006293 -0.12994857149178667965 0.067674835063018953796 0.42273724471869800201 0.33497307601214287853;-0.36009108674260664751 0.17258243504026674064 0.30368939745293194177 -0.19676589088530993532 -0.18616007777009191404 -0.22410666285458802349 0.21526462009632976735 0.25579545816114096501 -0.39224972710408573251 -0.12430083038650417693 -0.37922227699220623087 -0.43354113409018840697 0.075192025053223809916 0.30926700903231202355 0.14805480629498096734 -0.3253240662817453166 -0.36274020878762608389 0.2240772257311375304 -0.16578922657662456541 -0.31881557270927229908 -0.10374291756463593916 0.15453799808224785717 -0.15806725694221018808 -0.2423715660110636605;0.10580468086511851666 0.47138565384661201829 -0.45390278907094194771 -0.26815772096971318694 -0.030267424845034085479 0.06991191595667320402 -0.24114716609722383622 -0.22349690182218395762 0.020380169423892476738 -0.16155118175575647332 -0.035760000542165000514 -0.21907923143374122277 0.20283574083371572194 -0.10492819000080134961 -0.20422564019105965416 -0.031433654093233773241 -0.15942517502951558672 -0.17521250290391227056 0.26810123966280330343 0.036745422848521121229 -0.18056442602672567732 -0.36257687248364073307 -0.22196072350102105664 0.36408811986052042053;-0.033358106906786276491 0.36600667396169822565 0.25633396788435702796 0.20952444895532981728 0.02344989605740747593 0.32232578429727426483 -0.15209089960993207868 -0.088609389624042064759 -0.089949355699853114632 0.033797447809301134347 -0.017268065431245236546 -0.20289444361199038269 0.28912078005688895965 -0.35676260653614461082 0.10015348357023821924 0.30273645537124604932 0.10405882586061511452 0.33117236029466884384 -0.11294449936163801496 0.42284127751489053448 -0.057318455917253194332 0.12388527803932232463 0.34955714934425979878 -0.024641848701748809286;0.32177891419089071912 0.33838963244037856271 0.020726060313589943218 -0.099111256988210647001 -0.1785106327731333653 0.11505511794677339421 -0.27805258758739803682 -0.29418554772836524869 -0.38766815672107096669 0.29710518200792307431 0.14436022615833632443 -0.033592213176807904362 -0.32201482638460438013 0.26364586728542288574 0.35034860427831143737 0.1739675557634708658 -0.22593464159938231317 0.34789824001889535499 0.33584119709684423505 -0.31419600385784463015 -0.16544097737863855402 -0.018105276701819387336 -0.046980195215394045249 -0.2493977315392674754;0.039973668166801569479 0.14710475054061569744 0.32205469008285531052 0.53194474299166472075 0.47521733923854797554 -0.15658087349088559148 -0.30048921324834326763 -0.0008295340747907571817 0.12001614153511835914 -0.36712616931923675034 0.071980214674587664203 0.12147388690417040835 0.35473640479555434979 0.13994571475299108498 0.30913522027720957697 0.14929307566231209137 -0.052064059741359018652 0.099647532477091335656 -0.1467883589640036901 0.29240537965978818935 -0.29393168518140594392 0.22327775623674114835 -0.059853137549697378594 0.36031469022721929196;-0.46624724271695189293 0.34738288155795443712 -0.2571254943344494226 -0.30205054544357323731 0.046539546408281964873 0.3586595300285218002 -0.097429881966159745388 -0.15239061402522843802 -0.18797413010277813639 -0.24469129319437987746 0.074754645843413861095 0.15270035301669349082 0.33884623816709763533 0.24168859012685198207 -0.27615246318834779649 0.11321366069929328368 0.13792347422120648792 0.27561179671192881369 0.14250861791838073667 0.099354016791045302037 0.22664140884093855743 -0.24622943819488948836 -0.20969551789152093835 0.2114865276305008257;0.23753221691847664632 -0.33146349952951981166 0.21428714879054130971 -0.18733815311546611615 -0.26020100289674419347 -0.19906479549859931732 -0.3581125613985538525 0.20103483923451354043 -0.11124603498495587439 -0.05371231154783934203 -0.25310532289795811822 -0.10768050809690853098 0.068656614064876733683 -0.33316224144324607659 -0.013129569964266977686 -0.12387396579099207994 -0.1981127884362439695 -0.26016367002185325497 0.20785920034273366874 -0.24514831615258436681 0.30391180679778101448 -0.25664794285586478573 0.21372883093510827712 0.31222985344385850714;-0.3586772401833469015 1.2321673010655243008 -0.45150842324305473507 0.34314929273089472828 0.023679150309665941698 -0.062614623772967337167 -0.058827865885292950077 0.29605586347766960076 -0.044122335504068729839 0.23260896691811128179 -0.20190585061259744282 0.043870302972140055864 -0.3501851152687365798 -0.19035647264713598248 -0.1007608164581032667 0.1214564029577055726 -0.094251956141201964634 -0.09037985813733423468 -0.028430222357732560373 -0.091530674003101608616 0.24443770288481697639 -0.18163478271052496682 -0.34404654592612743391 0.25511956265651836162;0.2180767373347453908 -0.058763499643265403038 -0.44352599460394726005 -0.023245923085562111149 0.18115137883178902833 -0.10314932081838901201 0.25909266599208674586 -0.33747404593266988604 -0.16016346254882812827 -0.31498265473814157644 0.18720633533459443698 -0.0094287218921873024863 -0.13337857563750238343 -0.015298633699627821672 -0.12804359229018089095 -0.18663956245617052687 -0.19695230974009028668 0.23765923736818911349 -0.03714652809208294354 -0.26875251360127483391 0.19983852244846500579 -0.21593455213467457887 0.04312374413645314597 0.18080673935463589808;0.6538640454692482562 0.41027779162862920703 -0.19011535144434915656 0.050408868402867380853 -0.18944521268046918272 -0.10769438461519671713 -0.35045396794461869394 -0.25351000491892100586 -0.086870788225947973005 0.044616945833030864643 0.2533454327725774835 0.12648690561271869193 -0.11543680395331792909 0.012304283363377577221 0.082166193973207124479 0.088113266254270961042 0.048586489981006883432 -0.47198187132897645446 0.10036783971933420367 0.47805146238851620177 -0.45398104573506353754 -0.065303018759521644365 -0.42115209157769811776 0.15261235837032180451;0.1171661839244650255 -0.090681873368956431025 0.27284356188890446226 0.13542287448022571894 0.16196087567826494835 -0.17640920652677266611 0.11527322457290091473 -0.13424795720060711535 0.13070381667491190458 -0.1268565082938848676 0.23043347846260647804 0.18238606717934927048 -0.27060884049096256554 0.093158099537092323161 -0.21550574979008021992 0.30949381236995970879 0.21162532252824098333 0.15562717030158479403 0.0069737591967307666074 0.21279534420955223406 -0.22031324383014266877 -0.28814174272117326625 -0.04272660658888963181 -0.15547476189643022471;0.056506999763789686475 -0.29169237037604545115 0.35711360811273140659 0.32440136070130654034 -0.032046464923439127448 -0.060538822819461712843 0.0890508769581311449 -0.2013043019121488475 0.40275380315578696022 -0.15556648486178850654 -0.097307284665662865941 0.20529310025734720524 0.25481606215371443991 -0.19629556411649004555 0.31241038136662535596 -0.35395030960999168679 -0.045933399779529544837 0.26947987029259712344 -0.13680694494588196974 -0.4256127830374291654 -0.17260373760445102409 -0.14748080697056309418 0.21096396601410724592 -0.37575377520873604054;0.26385889817325364204 -0.058144117930906451253 0.011822493420433554182 0.16737881828296252706 0.1495558734098454412 -0.012535426756626109543 -0.0032461618821777752861 -0.027382636379460534304 0.19396673263939337439 -0.10586734324063437618 -0.10106001184676222104 0.13606421977619898023 -0.39529305741330200696 -0.092564968512932069289 0.28500388324982411925 -0.014983410359850192137 -0.3565736967889795439 -0.21922390536613589607 -0.097855063059407151882 0.077481891805383520944 0.24279764390141839181 0.11918754680009355229 -0.39496482161475332529 0.14173902639335911324;0.24831220608430668029 0.30897939994888568016 -0.30440499092227779609 -0.10219393287589073616 -0.079706635354588981079 0.21760035184113110662 -0.16964950374056558813 -0.12924717661573295602 -0.13444053395564298237 0.25269790041321915641 0.12880510515954682327 -0.052993187624116547263 0.1347204364399919585 -0.30836975826006052248 0.14571362655576561296 -0.24347517176868538336 -0.25071191788344748819 -0.22167017638941413638 -0.13812391022103442939 0.2072754687719551292 -0.050597683960233695577 0.21638932847353287148 -0.128365195385739983 0.067425804126568303354;-0.79981545986640001367 0.37322142730047203063 0.21291033926080196736 0.053366285574468229347 0.13965465891093548079 -0.20579512659399390451 0.03649756018806674801 0.38495870823429528818 0.074158655463132133745 -0.1593633811454993332 -0.063767188693416826384 0.021659144131697609381 0.37370819903477442425 -0.11077626771999722621 -0.13529050977085216312 -0.22893748939956179433 0.070865198904671813929 0.38225514487289141696 0.0042614007291762491525 -0.34826884364118160242 -0.3813408425631694687 -0.15192100823712964552 -0.34340543984835375513 0.4049431076041323796;-0.57257330507124715169 0.055324558736724906149 -0.19517589401022447659 0.30339095672043875362 -0.061631414025967105885 -0.25533498184288627719 0.19412771400590395077 0.10212484792625659002 -0.31386169782765949154 0.33531539509548402567 -0.030253214099849864982 0.24365176989096382076 -0.049922733576370746655 -0.026186609591166573607 0.096478169042194666938 -0.21111137640436153373 0.25306058195873459837 0.17521262792677536058 -0.10543287007053228632 0.098770244044287525131 0.23864003056073640474 -0.0079876752837294718451 0.17718772287366799101 -0.27535086250903773042;0.096593706264216386281 -0.2610243436565198305 -0.037376945602392012968 -0.16957411285196605233 -0.12612517181462204463 -0.16350832858378655521 0.28485851902422065773 0.49395636396831993364 -0.060360197786040112322 0.075834867209407547106 -0.31044193174344109076 0.24033209250847487048 -0.10467255569187933206 0.042082806643131395741 -0.10568455389531712652 -0.21344206186137171244 0.11164173028841777036 0.12470540418794051618 -0.25070016478438822416 0.23009385594333769953 0.070890507209627459662 0.25910523530383411384 0.31532763762212717706 0.15956526553407032742;0.38893174938864388812 0.28184655070182079717 0.063416584409157955582 0.31284219004784258322 -0.46820755790428297827 -0.49658180756553255142 -0.33269960753702887413 -0.033805996405105627478 -0.19197144395216633739 -0.057332037191265436404 0.083089232787587466444 0.011966628332158489936 0.11451065578981442505 -0.18067427116456330483 0.16389655534430380701 -0.043539563114514345799 -0.15043020217150987472 -0.18368061974912033851 0.1925661404149047462 -0.17947967710418780141 -0.0051805826490888664052 -0.3312313985382543402 0.070281154538718665359 0.28188940558702474393;-0.64270195320131506822 -0.39834907832072014022 0.28551266297733579602 -0.10406727675624376228 0.33324699228815740648 0.030975674588026864964 -0.14224269065396899503 0.38112721140104777184 -0.046783112523766816337 -0.16087610288026077399 -0.51304202074076887818 -0.31751114634076088583 -0.27920708562637119865 0.41934383033895861193 -0.1907185929829147697 0.12147464767992392776 0.17838172537483210078 0.044243317316306242371 0.041825748586496347414 0.004488633396814960784 0.21102886135225334963 0.064451634671522400888 0.16109382086107218446 -0.039442548399332102993;0.024793622059009548519 0.58505066530535310143 -0.19731220472958721501 -0.09950791397323277554 -0.12391529147154575763 0.089032316365071029196 0.089920514116484842604 -0.17844217913853063773 -0.014944553970167650386 0.33175659265426399314 -0.42212245617758881178 0.046235943390682578136 0.29221094601532354718 0.25815966709803273016 -0.17613011318135823879 0.45069840604923888661 0.068285419731644703134 -0.38970073956859124786 -0.10722400367889504957 -0.068017413228634984734 -0.51373267815495249344 -0.15073570114772033568 -0.42794511951958363882 0.39603386919491323503;-0.26219320840116333571 -0.41477182480409940935 -0.28323954550448798839 0.092944039534567424177 0.40673685967540690323 0.13606340010940420893 0.061556447965776417419 -0.089298062531337596415 0.335777301978722853 -0.22387095122747835418 0.31360960609348348394 0.041521166095860317924 0.26018116822724318693 -0.070985645692233881321 0.016550299743963034493 0.16593367399665667761 -0.3106359748988961611 0.22075943436024067501 0.088203832940349058411 -0.28633607715192782583 -0.055557192803831596806 -0.30440800069449797105 -0.34673224602617080947 0.064308872477453760119;-0.74339765014991077141 0.25562646488430817993 -0.35902209928048922638 -0.00096436584821802230974 -0.23797625748823017511 0.09425558308089859727 0.25131732119418120908 0.076439514165982075378 0.099034911911219214442 -0.19484914615007600802 0.1267531662691117611 -0.23707914475875829785 0.050646745448728366923 0.20788587840235162041 0.37084470553831766493 0.15117942235024828257 0.47627838012197859507 -0.10526777813486264124 0.035436708512728759546 0.08691601176864284517 0.22328825569485860614 0.45243256377326190876 -0.053610778127775995938 -0.29761468125934836815;-0.076059533621835859196 -0.030102351366374961034 -0.026524147831259125424 -0.19766972975269070378 -0.00900344105314496157 -0.15635650908197407105 -0.070837865010973208313 -0.24680054408855262027 -0.14124450501403404412 -0.25441013557135633283 -0.28550808915499309437 0.57252313846135804987 -0.30774696683897595495 0.11804276733320696879 -0.021879470291530367376 -0.13519871651220288777 -0.072874019831847922091 0.2214232388151626818 -0.36290449662768875516 0.39509385794297413597 -0.066292894647403260988 0.14200789276075742595 -0.27072521199693161398 -0.067853750086970643363;0.11940469397848568756 0.37109713191820753453 -0.068321832215588518267 0.066841265659357454454 0.0025925396753492023841 -0.38210303301675396792 -0.30305116682036242759 0.27053326413056127953 0.18077560725451599644 -0.20264005079451663516 -0.055429735212036354564 -0.025545281217650414596 -0.40419875715806125038 -0.29600124805682770379 -0.21069842568238292269 0.23206886206936477857 0.18483253322327378165 -0.13410467528494926515 -0.25432433936448584078 -0.37990540731120059359 0.13131661081424700344 0.20229434500624979276 -0.13466195006692113778 0.26798002993513719838;-0.47649738206471253799 0.84729823369847390158 -0.41752569100928232926 0.17231097940914733013 -0.12601719570364183776 -0.040030967445622955836 -0.12092063308950203038 0.02520192938353991996 0.31783210564530001152 0.082156401440853565887 0.41683492010178752052 -0.091804869345048986662 -0.28529933439170823695 -0.082498122103654425441 -0.091197135078813232334 0.15991333467731561058 -0.31104935323007887327 0.10590212246992689038 -0.40529303279418682493 -0.147942668428903773 -0.3095142384646303868 0.037657895607684101213 0.13773755363463385804 0.32591877356884468853;-0.29049393340066093083 -0.71776553231261908117 0.60081150595080679011 0.022140046918971915957 0.13664952613180589291 -0.35672260382398301992 -0.033037349346967524732 -0.11451022362462909276 -0.16776495558357362725 0.051057841374100326748 -0.32260334672900620179 -0.27225551351789378796 -0.054882198402436348228 0.35701296978908148017 -0.27216340822216750217 -0.094491568429976441346 0.33591746743226785776 0.16007428257594433219 -0.14891612935054240885 -0.19689229149931000706 0.17399101322999097063 -0.041422755495929969305 0.18263434210191489826 -0.034314813359324569664;-0.62505092776656245857 0.061469538787858907236 -0.50537364178759325295 -0.15851333538447059945 0.064949447225172693421 0.18140257667157974608 -0.23586827086330780512 0.2843888964869730196 0.14302793325898621735 0.53480743864211621741 -0.23635455967614263373 -0.18423426549210117353 0.20973583863131173288 -0.20811665127629000449 0.25378549908801834034 0.39939645908989374057 -0.0037965402822781901294 0.54024976726867346422 -0.27912943047901211946 -0.10195892078286121485 -0.05921811768252108199 -0.029287428279836748291 -0.27409284543927225908 0.44808112526998994385;0.084202891094383253145 -0.16074160118153574262 -0.023558632253588718958 -0.363799636173811336 -0.17459731815414397671 0.36270593043240706432 0.015122153491330744476 0.20773923859427856353 0.0044373802971749715801 -0.093415842068161739076 0.28115919906495362435 -0.29382361068546991589 0.045158494778683638815 0.31038153500727116985 0.17615295147104223505 -0.19664224708141678222 0.16899715945088425451 -0.0019549509700714359436 -0.035560887059956226841 -0.24849393851202988825 -0.031469058301388477816 0.18686122682908831716 0.24857913940742623615 0.35907977543173036361;-0.1311953441412716248 0.099214107289714401072 -0.097782154179612584821 0.0045275771320499183861 -0.23684342710262387688 0.39351098835455838865 0.2062581467116967604 0.041520938528189603456 0.28893896692048048891 -0.11308088936168299299 0.23619479781347110792 -0.07374641381446932209 0.109676200866528753 -0.031990055123167014661 -0.31810050488874580532 0.15627424993684815857 -0.43395003549168392754 0.17431575621889336403 -0.26575526224729806302 -0.33853004776413375687 -0.12107029913703137858 0.19536634492511917305 -0.13838267303574097733 0.080321185065861791519;0.63964553462095818936 -0.34750529027466608989 0.079990796946401973577 -0.30663046856224429604 -0.13225877779464464967 -0.39323776390496334443 -0.35994273728692377512 0.29672417943315987365 0.24865919900571537005 0.088793829667964993546 0.32937130546596932179 0.18829336044891623048 -0.17151621489967461276 -0.25600787198172803016 -0.080016976864757657917 -0.1119290511715627795 0.11230997989322258346 0.23367029765785662931 -0.22503158081742297147 -0.21602876923068589643 -0.084134119950953392686 0.010938572685907019255 -0.093549857518792661759 0.049292164983916017529;-0.42744944041355276143 0.10290159447867487652 0.10616048279637524399 0.1289364725708628534 0.23173074393809381388 0.10015821924561872647 0.22974544164868362928 0.014329309319184259028 0.0095629240701609018183 0.1574498124287158074 -0.092724544562317698371 -0.16738638490544976989 0.16112897063213185711 -0.30981364608716088771 -0.002820084253397892992 -0.50163194170533476068 0.15804473407695504572 -0.093914099677842838299 -0.13132637947772160536 -0.065106224749156352272 0.011497485506935000918 0.23983377279493073297 -0.065490482746127259839 -0.055124082729950639459;-0.18320323279342323741 0.45012491576880553357 -0.27266124053182161369 0.0031532739481038444054 -0.1441605269205017692 0.43973102456428431184 -0.2654955043278595106 0.12426097560358356775 -0.061094589160284075435 -0.02403816119886711955 -0.1451498073156485269 -0.49679225061464726831 0.1030194388448411047 -0.22697295040534343213 0.27679649106664333535 -0.25595275326395766635 0.15079567388627157509 -0.12895167804719381843 0.12407339569969796922 0.22065783600166885559 0.087825482357599640726 0.22978381414275902972 -0.20489935487846025475 0.17702340879932976225;0.56827380901507451583 -0.33138712895539496062 -0.30041681077210241613 -0.075011052415860549059 0.20611596973601459259 0.14913761994799551447 0.40110217851445867376 0.30805153373210975021 0.20392332362638596055 0.1435228711393717882 0.22134996746664389877 0.18762519548790615453 -0.56220180245824746823 0.1114200065739615747 -0.34915856681028883957 -0.10240479160296674099 -0.054776123608077119387 0.073040815169269857066 0.10914442763875059628 -0.31695086491879415069 0.21697278441672551708 0.28652261354180141861 -0.61487918058076329597 -0.22290716669151650065;0.16827763482010418827 -0.024138920819073067525 -0.34779454155363626056 0.19463141366659211795 0.053902407404546215375 -0.057784656085341938592 0.080344042489353867387 0.36418149860636489512 -0.31915644005935761562 -0.11520047622253042074 0.21996431752800621462 -0.018842837187748484595 0.022128146203092845939 0.22088871402031018398 -0.2937361054362699897 -0.19143961849114005114 0.30406896416580903031 -0.30355437065852464151 0.14233508204876482717 -0.27812645074382902344 -0.33924547534416266137 0.0011274818612245279467 0.079162487040396745108 -0.30980369069795515857;0.058152565286347088214 0.076124303517241573291 -0.15734284041113430486 0.52918681039991577464 -0.061088658730398093244 0.2347533916581412694 -0.19029793174774942144 0.10835461073661842302 0.26316762564946716285 0.19128508389869131046 -0.072242243889120677514 -0.19740141671322752881 -0.28474548730811377606 -0.29359511288454170908 0.28582505485080539342 0.22597516355453600712 -0.10486781707712698741 -0.042717149946110574699 0.2930789679085045174 -0.04161344639361578418 0.030696425076272650795 -0.25803057198814299822 0.23764893221638500043 -0.0191949087680090974;-1.019429423377883337 1.1499560950325362629 -0.036436072779351236228 -0.18869137132397859058 -0.2065191169850176256 -0.15333989578743545401 -0.11089626449102417405 -0.41229850159864150916 -0.34038029525756247073 -0.057698307991467509548 0.061583248196382757433 0.52804961529367966389 0.27723390831614863616 0.22186113678320484865 -0.14801206990278995002 -0.015382548172771865619 0.14500967854718635475 0.013780335108922243947 0.36537127809058289607 0.48725877607509787692 -0.18356981440160932695 0.014474807863092130009 -0.45717539842186488697 -0.3996134096291760196;0.52006170587742250877 0.35693674301712940977 -0.10386725248210856853 0.38375066522642586886 -0.12734534155032459224 -0.040876661632724776985 0.19051069807707757264 0.057592553969234308586 -0.48576519479211333064 -0.022021781218888872994 -0.34092898104759655764 0.027986017488879948861 0.14029647957423227456 0.2393937929271416909 -0.2342690282776063726 -0.14767105855210868603 0.16069080697266022173 0.24044774622064776781 0.20439768131869656687 -0.0724144051435118008 -0.23804434349510136815 0.09431332505952888523 0.014702947280981867179 -0.017479163692523801144;-0.37638422519302416891 0.10153286307353648343 0.12766902392495552143 0.075653419370557500878 0.027481072902786729539 0.10585688668621691388 0.01247739254198457215 0.23417389601936106081 0.12680970640956376605 -0.35060888044143745379 0.23083868016224820541 -0.13430072504393789079 0.29226109608303568743 -0.078991790104566847464 -0.038837211568605978229 -0.027659616892855846265 -0.34814760025286684009 -0.19434065891731838738 -0.030613138114349063013 0.14785614117259784916 -0.60888325852886948653 -0.093711399937250264291 0.60082642963132149028 -0.04927906463857355257;-0.12196428885296380085 -0.24419800063795726874 0.032475170798756343438 -0.26946503033327373622 0.11147393402464958467 0.18178228999329923421 -0.097518563236784330805 -0.24977647595433480343 -0.26949383907914759018 0.2194526034206588927 -0.21545093350452645953 0.030623195998353024139 -0.087120787954049386248 0.14719915776293360232 0.13159161407863897986 0.10764034238759798146 -0.098663452443780136347 -0.0077360894267309871647 0.13490888217723365217 0.020675419666552358883 0.41526022167522763651 0.44600959183288807486 0.53179992629473749055 -0.062286728422995825405];

% Layer 2
b2 = 0.18110142601480763713;
LW2_1 = [-0.25965747926473398133 -0.074880007366457432272 -0.37413296404140394813 0.18086273278705847223 -0.5756831176296457464 -0.49064408222953515004 0.15102108467350006116 -0.35547069219871668677 -0.33268420819755822881 0.1467170891865188509 -0.55029277964697043135 0.040944270051783887565 0.10999327148932661058 -0.067838970671145262803 0.066918877073291305191 -0.22252163406499397835 0.62290632593601369393 0.15909458996827538502 0.7567590241448817201 -0.24237170425498941184 0.26418896976161920787 -0.38932728690706142061 -0.34847816980373352846 -0.47880473703543036113 -0.66101384497512427618 0.58010303826462294996 -0.18683013003333745483 -0.52163015333644358051 -0.24124116890244731715 0.22799868158802127915 -0.13180498721599009926 -0.12800263249456783621 0.13445239505234629629 -0.84911132013588197509 0.50682085050394509729 0.15269298472845901915 0.0028777810061035992255 0.1433104963359670414 0.41067998226425173058 -0.12578644490251514321 -0.31627023868798848083 -0.26695532512495645516 -0.015644151096321022576 -0.17180659668062700507 -0.4703749501312303738 -0.28000933738693123409 0.47499295029863319861 -0.040668138438321357886];

% Output 1
y1_step1.ymin = -1;
y1_step1.gain = 0.0418585182084554;
y1_step1.xoffset = -11.03;

% ===== SIMULATION ========

% Format Input Arguments
isCellX = iscell(X);
if ~isCellX
    X = {X};
end
if (nargin < 2), error('Initial input states Xi argument needed.'); end

% Dimensions
TS = size(X,2); % timesteps
if ~isempty(X)
    Q = size(X{1},2); % samples/series
elseif ~isempty(Xi)
    Q = size(Xi{1},2);
else
    Q = 0;
end

% Input 1 Delay States
Xd1 = cell(1,25);
for ts=1:24
    Xd1{ts} = mapminmax_apply(Xi{1,ts},x1_step1);
end

% Input 2 Delay States
Xd2 = cell(1,25);
for ts=1:24
    Xd2{ts} = mapminmax_apply(Xi{2,ts},x2_step1);
end

% Allocate Outputs
Y = cell(1,TS);
next = X{1,1}(2,1);
% Time loop
for ts=1:TS
    
    % Rotating delay state position
    xdts = mod(ts+23,25)+1;
    
    % Input 1
    Xd1{xdts} = mapminmax_apply(X{1,ts},x1_step1);
    
    % Input 2
    Xd2{xdts} = mapminmax_apply(next,x2_step1);
    
    % Layer 1
    tapdelay1 = cat(1,Xd1{mod(xdts-[1 2 3 4 5 6 7 8 9 10 11 12 13 14 15 16 17 18 19 20 21 22 23 24]-1,25)+1});
    tapdelay2 = cat(1,Xd2{mod(xdts-[1 2 3 4 5 6 7 8 9 10 11 12 13 14 15 16 17 18 19 20 21 22 23 24]-1,25)+1});
    a1 = tansig_apply(repmat(b1,1,Q) + IW1_1*tapdelay1 + IW1_2*tapdelay2);
    
    % Layer 2
    a2 = repmat(b2,1,Q) + LW2_1*a1;
    
    % Output 1
    Y{1,ts} = mapminmax_reverse(a2,y1_step1);
    next = Y{1,ts};
end

% Final Delay States
finalxts = TS+(1: 24);
xits = finalxts(finalxts<=24);
xts = finalxts(finalxts>24)-24;
%Xf = [Xi(:,xits) X(:,xts)];
Af = cell(2,0);

% Format Output Arguments
if ~isCellX
    Y = cell2mat(Y);
end
end

% ===== MODULE FUNCTIONS ========

% Map Minimum and Maximum Input Processing Function
function y = mapminmax_apply(x,settings)
y = bsxfun(@minus,x,settings.xoffset);
y = bsxfun(@times,y,settings.gain);
y = bsxfun(@plus,y,settings.ymin);
end

% Sigmoid Symmetric Transfer Function
function a = tansig_apply(n,~)
a = 2 ./ (1 + exp(-2*n)) - 1;
end

% Map Minimum and Maximum Output Reverse-Processing Function
function x = mapminmax_reverse(y,settings)
x = bsxfun(@minus,y,settings.ymin);
x = bsxfun(@rdivide,x,settings.gain);
x = bsxfun(@plus,x,settings.xoffset);
end
